{
  "version": "1.0",
  "truncation": null,
  "padding": null,
  "added_tokens": [
    {
      "id": 0,
      "content": "[UNK]",
      "single_word": false,
      "lstrip": false,
      "rstrip": false,
      "normalized": false,
      "special": true
    },
    {
      "id": 1,
      "content": "[PAD]",
      "single_word": false,
      "lstrip": false,
      "rstrip": false,
      "normalized": false,
      "special": true
    },
    {
      "id": 2,
      "content": "[SOS]",
      "single_word": false,
      "lstrip": false,
      "rstrip": false,
      "normalized": false,
      "special": true
    },
    {
      "id": 3,
      "content": "[EOS]",
      "single_word": false,
      "lstrip": false,
      "rstrip": false,
      "normalized": false,
      "special": true
    }
  ],
  "normalizer": null,
  "pre_tokenizer": {
    "type": "Whitespace"
  },
  "post_processor": {
    "type": "TemplateProcessing",
    "single": [
      {
        "SpecialToken": {
          "id": "[SOS]",
          "type_id": 0
        }
      },
      {
        "Sequence": {
          "id": "A",
          "type_id": 0
        }
      },
      {
        "SpecialToken": {
          "id": "[EOS]",
          "type_id": 0
        }
      }
    ],
    "pair": [
      {
        "Sequence": {
          "id": "A",
          "type_id": 0
        }
      },
      {
        "Sequence": {
          "id": "B",
          "type_id": 1
        }
      }
    ],
    "special_tokens": {
      "[EOS]": {
        "id": "[EOS]",
        "ids": [
          3
        ],
        "tokens": [
          "[EOS]"
        ]
      },
      "[SOS]": {
        "id": "[SOS]",
        "ids": [
          2
        ],
        "tokens": [
          "[SOS]"
        ]
      }
    }
  },
  "decoder": null,
  "model": {
    "type": "WordPiece",
    "unk_token": "[UNK]",
    "continuing_subword_prefix": "##",
    "max_input_chars_per_word": 100,
    "vocab": {
      "[UNK]": 0,
      "[PAD]": 1,
      "[SOS]": 2,
      "[EOS]": 3,
      "!": 4,
      "\"": 5,
      "#": 6,
      "$": 7,
      "%": 8,
      "&": 9,
      "'": 10,
      "(": 11,
      ")": 12,
      "*": 13,
      "+": 14,
      ",": 15,
      "-": 16,
      ".": 17,
      "/": 18,
      "0": 19,
      "1": 20,
      "2": 21,
      "3": 22,
      "4": 23,
      "5": 24,
      "6": 25,
      "7": 26,
      "8": 27,
      "9": 28,
      ":": 29,
      ";": 30,
      "=": 31,
      ">": 32,
      "?": 33,
      "@": 34,
      "A": 35,
      "B": 36,
      "C": 37,
      "D": 38,
      "E": 39,
      "F": 40,
      "G": 41,
      "H": 42,
      "I": 43,
      "J": 44,
      "K": 45,
      "L": 46,
      "M": 47,
      "N": 48,
      "O": 49,
      "P": 50,
      "Q": 51,
      "R": 52,
      "S": 53,
      "T": 54,
      "U": 55,
      "V": 56,
      "W": 57,
      "X": 58,
      "Y": 59,
      "Z": 60,
      "[": 61,
      "\\": 62,
      "]": 63,
      "_": 64,
      "`": 65,
      "a": 66,
      "b": 67,
      "c": 68,
      "d": 69,
      "e": 70,
      "f": 71,
      "g": 72,
      "h": 73,
      "i": 74,
      "j": 75,
      "k": 76,
      "l": 77,
      "m": 78,
      "n": 79,
      "o": 80,
      "p": 81,
      "q": 82,
      "r": 83,
      "s": 84,
      "t": 85,
      "u": 86,
      "v": 87,
      "w": 88,
      "x": 89,
      "y": 90,
      "z": 91,
      "##p": 92,
      "##s": 93,
      "##u": 94,
      "##z": 95,
      "##k": 96,
      "##i": 97,
      "##o": 98,
      "##n": 99,
      "##v": 100,
      "##e": 101,
      "##c": 102,
      "##l": 103,
      "##a": 104,
      "##y": 105,
      "##g": 106,
      "##t": 107,
      "##d": 108,
      "##O": 109,
      "##L": 110,
      "##I": 111,
      "##D": 112,
      "##A": 113,
      "##Y": 114,
      "##m": 115,
      "##r": 116,
      "##V": 117,
      "##S": 118,
      "##h": 119,
      "##b": 120,
      "##f": 121,
      "##R": 122,
      "##M": 123,
      "##B": 124,
      "##E": 125,
      "##x": 126,
      "##U": 127,
      "##T": 128,
      "##N": 129,
      "##H": 130,
      "##C": 131,
      "##w": 132,
      "##W": 133,
      "##P": 134,
      "##9": 135,
      "##q": 136,
      "##)": 137,
      "##.": 138,
      "##5": 139,
      "##G": 140,
      "##0": 141,
      "##3": 142,
      "##2": 143,
      "##1": 144,
      "##F": 145,
      "##7": 146,
      "##6": 147,
      "##K": 148,
      "##Q": 149,
      "##X": 150,
      "##4": 151,
      "##Z": 152,
      "##j": 153,
      "##8": 154,
      "##(": 155,
      "##,": 156,
      "##J": 157,
      "##+": 158,
      "##\"": 159,
      "##'": 160,
      "###": 161,
      "##;": 162,
      "##`": 163,
      "##@": 164,
      "##/": 165,
      "##>": 166,
      "##=": 167,
      "##]": 168,
      "##-": 169,
      "##_": 170,
      "##?": 171,
      "##$": 172,
      "##!": 173,
      "##in": 174,
      "##ing": 175,
      "##it": 176,
      "##er": 177,
      "##an": 178,
      "##he": 179,
      "on": 180,
      "##le": 181,
      "##at": 182,
      "of": 183,
      "##ar": 184,
      "in": 185,
      "##re": 186,
      "an": 187,
      "the": 188,
      "##ith": 189,
      "with": 190,
      "##ro": 191,
      "and": 192,
      "##al": 193,
      "to": 194,
      "##en": 195,
      "st": 196,
      "##ed": 197,
      "##om": 198,
      "##es": 199,
      "##ding": 200,
      "##as": 201,
      "##on": 202,
      "##ow": 203,
      "##ck": 204,
      "is": 205,
      "##et": 206,
      "##or": 207,
      "##ir": 208,
      "##ou": 209,
      "##is": 210,
      "man": 211,
      "##la": 212,
      "##op": 213,
      "##ting": 214,
      "##ch": 215,
      "sit": 216,
      "##all": 217,
      "##ra": 218,
      "##oo": 219,
      "##id": 220,
      "##il": 221,
      "ne": 222,
      "##el": 223,
      "##ot": 224,
      "wh": 225,
      "##ers": 226,
      "##ol": 227,
      "th": 228,
      "##rou": 229,
      "stan": 230,
      "sitting": 231,
      "##ig": 232,
      "##ge": 233,
      "##ut": 234,
      "are": 235,
      "##ic": 236,
      "##wo": 237,
      "##ard": 238,
      "##ab": 239,
      "at": 240,
      "##king": 241,
      "bu": 242,
      "##ite": 243,
      "be": 244,
      "sk": 245,
      "##ying": 246,
      "standing": 247,
      "##ide": 248,
      "##eop": 249,
      "##eople": 250,
      "##eb": 251,
      "tra": 252,
      "##ur": 253,
      "##oard": 254,
      "##ad": 255,
      "##xt": 256,
      "##able": 257,
      "wom": 258,
      "next": 259,
      "people": 260,
      "##ver": 261,
      "white": 262,
      "##nt": 263,
      "it": 264,
      "##her": 265,
      "ro": 266,
      "##nd": 267,
      "##ass": 268,
      "##ff": 269,
      "pla": 270,
      "##ile": 271,
      "woman": 272,
      "pl": 273,
      "hol": 274,
      "##lo": 275,
      "table": 276,
      "cou": 277,
      "stre": 278,
      "do": 279,
      "##ome": 280,
      "street": 281,
      "fro": 282,
      "##ood": 283,
      "fi": 284,
      "Two": 285,
      "bo": 286,
      "holding": 287,
      "that": 288,
      "par": 289,
      "sh": 290,
      "##ce": 291,
      "##am": 292,
      "top": 293,
      "##own": 294,
      "##ate": 295,
      "##se": 296,
      "The": 297,
      "##erson": 298,
      "##ack": 299,
      "grou": 300,
      "la": 301,
      "sm": 302,
      "person": 303,
      "ch": 304,
      "bat": 305,
      "##arge": 306,
      "##ant": 307,
      "##ri": 308,
      "down": 309,
      "large": 310,
      "some": 311,
      "wat": 312,
      "cat": 313,
      "gir": 314,
      "##and": 315,
      "up": 316,
      "##che": 317,
      "fl": 318,
      "##eld": 319,
      "##ve": 320,
      "pi": 321,
      "##ion": 322,
      "##ach": 323,
      "ri": 324,
      "sn": 325,
      "##ru": 326,
      "##ng": 327,
      "out": 328,
      "##igh": 329,
      "field": 330,
      "group": 331,
      "dog": 332,
      "car": 333,
      "near": 334,
      "##ke": 335,
      "snow": 336,
      "ten": 337,
      "##nis": 338,
      "##ign": 339,
      "two": 340,
      "train": 341,
      "##lack": 342,
      "##ul": 343,
      "front": 344,
      "his": 345,
      "wal": 346,
      "clo": 347,
      "park": 348,
      "small": 349,
      "tennis": 350,
      "gr": 351,
      "##ree": 352,
      "bus": 353,
      "##row": 354,
      "##room": 355,
      "sur": 356,
      "##ain": 357,
      "bas": 358,
      "sign": 359,
      "##ell": 360,
      "room": 361,
      "black": 362,
      "re": 363,
      "plate": 364,
      "##ure": 365,
      "riding": 366,
      "##ay": 367,
      "##ind": 368,
      "##ple": 369,
      "side": 370,
      "##oung": 371,
      "grass": 372,
      "bl": 373,
      "kit": 374,
      "air": 375,
      "##ue": 376,
      "water": 377,
      "by": 378,
      "##ight": 379,
      "ph": 380,
      "red": 381,
      "##round": 382,
      "##st": 383,
      "##ent": 384,
      "bath": 385,
      "##one": 386,
      "loo": 387,
      "##ving": 388,
      "surf": 389,
      "young": 390,
      "##board": 391,
      "buil": 392,
      "##ss": 393,
      "##ph": 394,
      "##eball": 395,
      "bed": 396,
      "##side": 397,
      "building": 398,
      "##reen": 399,
      "##ink": 400,
      "##air": 401,
      "baseball": 402,
      "An": 403,
      "has": 404,
      "skat": 405,
      "play": 406,
      "while": 407,
      "com": 408,
      "playing": 409,
      "##pt": 410,
      "walking": 411,
      "##mb": 412,
      "skateb": 413,
      "##zz": 414,
      "##ee": 415,
      "bathroom": 416,
      "##yc": 417,
      "su": 418,
      "##ds": 419,
      "for": 420,
      "food": 421,
      "her": 422,
      "co": 423,
      "##ct": 424,
      "blue": 425,
      "hor": 426,
      "ot": 427,
      "##chen": 428,
      "pizz": 429,
      "##aring": 430,
      "##age": 431,
      "##ycle": 432,
      "kitchen": 433,
      "back": 434,
      "wood": 435,
      "skateboard": 436,
      "po": 437,
      "##aff": 438,
      "green": 439,
      "li": 440,
      "mot": 441,
      "##irt": 442,
      "ele": 443,
      "parked": 444,
      "pizza": 445,
      "other": 446,
      "##ie": 447,
      "##gh": 448,
      "boy": 449,
      "giraff": 450,
      "ball": 451,
      "##im": 452,
      "looking": 453,
      "motor": 454,
      "ski": 455,
      "over": 456,
      "##ity": 457,
      "##get": 458,
      "se": 459,
      "##ture": 460,
      "eat": 461,
      "beach": 462,
      "##ilet": 463,
      "toilet": 464,
      "clock": 465,
      "##tle": 466,
      "##phant": 467,
      "we": 468,
      "##ran": 469,
      "bear": 470,
      "couple": 471,
      "##ake": 472,
      "##ep": 473,
      "ben": 474,
      "des": 475,
      "elephant": 476,
      "road": 477,
      "girl": 478,
      "pic": 479,
      "##rel": 480,
      "##ame": 481,
      "con": 482,
      "##ild": 483,
      "##ane": 484,
      "wa": 485,
      "Th": 486,
      "##led": 487,
      "comp": 488,
      "men": 489,
      "##mbrel": 490,
      "mou": 491,
      "umbrel": 492,
      "city": 493,
      "flying": 494,
      "dis": 495,
      "picture": 496,
      "##lass": 497,
      "##cks": 498,
      "motorc": 499,
      "wearing": 500,
      "##ill": 501,
      "board": 502,
      "##ris": 503,
      "##dy": 504,
      "tow": 505,
      "##ld": 506,
      "##ptop": 507,
      "player": 508,
      "al": 509,
      "wind": 510,
      "laptop": 511,
      "le": 512,
      "she": 513,
      "sl": 514,
      "tru": 515,
      "motorcycle": 516,
      "##ore": 517,
      "##ine": 518,
      "game": 519,
      "##veral": 520,
      "int": 521,
      "laying": 522,
      "##ong": 523,
      "from": 524,
      "sits": 525,
      "comput": 526,
      "##rown": 527,
      "##ap": 528,
      "child": 529,
      "wooden": 530,
      "##rough": 531,
      "##um": 532,
      "sand": 533,
      "bench": 534,
      "window": 535,
      "zeb": 536,
      "sink": 537,
      "area": 538,
      "##ks": 539,
      "glass": 540,
      "##nder": 541,
      "gra": 542,
      "##ter": 543,
      "through": 544,
      "their": 545,
      "as": 546,
      "airp": 547,
      "##un": 548,
      "wall": 549,
      "##pen": 550,
      "##risb": 551,
      "chair": 552,
      "##ellow": 553,
      "around": 554,
      "boat": 555,
      "eating": 556,
      "##ase": 557,
      "he": 558,
      "##ice": 559,
      "horse": 560,
      "cake": 561,
      "brown": 562,
      "light": 563,
      "yellow": 564,
      "phone": 565,
      "sc": 566,
      "hand": 567,
      "##risbee": 568,
      "computer": 569,
      "stop": 570,
      "##oto": 571,
      "old": 572,
      "under": 573,
      "##ag": 574,
      "##ort": 575,
      "desk": 576,
      "cover": 577,
      "##ast": 578,
      "bir": 579,
      "##ery": 580,
      "photo": 581,
      "giraffe": 582,
      "lit": 583,
      "##sh": 584,
      "##ull": 585,
      "outside": 586,
      "de": 587,
      "open": 588,
      "one": 589,
      "##way": 590,
      "ra": 591,
      "ve": 592,
      "tre": 593,
      "sp": 594,
      "truck": 595,
      "living": 596,
      "##rt": 597,
      "##cc": 598,
      "##here": 599,
      "sw": 600,
      "fire": 601,
      "close": 602,
      "##ross": 603,
      "##ses": 604,
      "flo": 605,
      "te": 606,
      "surfboard": 607,
      "There": 608,
      "##ped": 609,
      "umbrella": 610,
      "ban": 611,
      "covered": 612,
      "##ove": 613,
      "count": 614,
      "bow": 615,
      "col": 616,
      "trees": 617,
      "tree": 618,
      "##acket": 619,
      "##est": 620,
      "each": 621,
      "##ation": 622,
      "bun": 623,
      "lot": 624,
      "##ady": 625,
      "##illed": 626,
      "di": 627,
      "cell": 628,
      "##em": 629,
      "cow": 630,
      "suit": 631,
      "##hind": 632,
      "Three": 633,
      "behind": 634,
      "##ak": 635,
      "##gg": 636,
      "##sing": 637,
      "filled": 638,
      "very": 639,
      "banan": 640,
      "bowl": 641,
      "##ground": 642,
      "off": 643,
      "court": 644,
      "##ping": 645,
      "##pla": 646,
      "cl": 647,
      "sky": 648,
      "cont": 649,
      "oran": 650,
      "cut": 651,
      "its": 652,
      "ab": 653,
      "##ves": 654,
      "##up": 655,
      "flow": 656,
      "little": 657,
      "##aking": 658,
      "fen": 659,
      "show": 660,
      "into": 661,
      "##ction": 662,
      "##gether": 663,
      "together": 664,
      "##ors": 665,
      "##eat": 666,
      "ap": 667,
      "kite": 668,
      "##if": 669,
      "##qu": 670,
      "##ich": 671,
      "##iew": 672,
      "sandw": 673,
      "##ly": 674,
      "shirt": 675,
      "run": 676,
      "##ere": 677,
      "mount": 678,
      "background": 679,
      "Se": 680,
      "bi": 681,
      "airpl": 682,
      "dri": 683,
      "##rick": 684,
      "##alk": 685,
      "skis": 686,
      "so": 687,
      "frisbee": 688,
      "inside": 689,
      "Several": 690,
      "stands": 691,
      "##irro": 692,
      "mirro": 693,
      "##les": 694,
      "##ts": 695,
      "##ching": 696,
      "dou": 697,
      "mirror": 698,
      "bunch": 699,
      "pre": 700,
      "view": 701,
      "##ets": 702,
      "couch": 703,
      "##dr": 704,
      "displa": 705,
      "##ub": 706,
      "##cean": 707,
      "##walk": 708,
      "ocean": 709,
      "##ffic": 710,
      "hy": 711,
      "People": 712,
      "big": 713,
      "pie": 714,
      "sheep": 715,
      "counter": 716,
      "bird": 717,
      "##ry": 718,
      "##ang": 719,
      "go": 720,
      "##drant": 721,
      "hot": 722,
      "many": 723,
      "hydrant": 724,
      "stu": 725,
      "swing": 726,
      "##ches": 727,
      "##ras": 728,
      "lu": 729,
      "mid": 730,
      "veget": 731,
      "##other": 732,
      "##orm": 733,
      "fence": 734,
      "racket": 735,
      "##eddy": 736,
      "Man": 737,
      "##dle": 738,
      "##do": 739,
      "airplane": 740,
      "floor": 741,
      "hill": 742,
      "display": 743,
      "pass": 744,
      "traffic": 745,
      "sandwich": 746,
      "zebra": 747,
      "che": 748,
      "ref": 749,
      "head": 750,
      "another": 751,
      "##ffer": 752,
      "teddy": 753,
      "dirt": 754,
      "##fferent": 755,
      "vegetable": 756,
      "sidewalk": 757,
      "##ner": 758,
      "##imal": 759,
      "##ies": 760,
      "orange": 761,
      "stand": 762,
      "##ress": 763,
      "##our": 764,
      "wave": 765,
      "mountain": 766,
      "##iling": 767,
      "women": 768,
      "plane": 769,
      "animal": 770,
      "different": 771,
      "jum": 772,
      "##etting": 773,
      "##ruit": 774,
      "tower": 775,
      "tall": 776,
      "tracks": 777,
      "met": 778,
      "##ook": 779,
      "flowers": 780,
      "vase": 781,
      "hit": 782,
      "bab": 783,
      "parking": 784,
      "there": 785,
      "along": 786,
      "##ace": 787,
      "sa": 788,
      "fruit": 789,
      "day": 790,
      "ground": 791,
      "##vel": 792,
      "im": 793,
      "plat": 794,
      "##ous": 795,
      "baby": 796,
      "horses": 797,
      "tie": 798,
      "bro": 799,
      "vegetables": 800,
      "grassy": 801,
      "graz": 802,
      "##ble": 803,
      "three": 804,
      "hang": 805,
      "being": 806,
      "bot": 807,
      "mo": 808,
      "##ope": 809,
      "full": 810,
      "giraffes": 811,
      "##ket": 812,
      "TH": 813,
      "br": 814,
      "##amp": 815,
      "##ick": 816,
      "snowboard": 817,
      "##hes": 818,
      "gu": 819,
      "cars": 820,
      "##ren": 821,
      "##ari": 822,
      "rest": 823,
      "fe": 824,
      "##rying": 825,
      "station": 826,
      "##ey": 827,
      "##ated": 828,
      "middle": 829,
      "##hing": 830,
      "##ac": 831,
      "##ven": 832,
      "stuff": 833,
      "dress": 834,
      "Some": 835,
      "ready": 836,
      "elephants": 837,
      "##ave": 838,
      "cup": 839,
      "bananas": 840,
      "##ale": 841,
      "##ip": 842,
      "en": 843,
      "several": 844,
      "image": 845,
      "##ment": 846,
      "dr": 847,
      "zebras": 848,
      "taking": 849,
      "##uring": 850,
      "##ator": 851,
      "them": 852,
      "hat": 853,
      "un": 854,
      "box": 855,
      "cor": 856,
      "bike": 857,
      "driving": 858,
      "crow": 859,
      "signs": 860,
      "ad": 861,
      "bes": 862,
      "slope": 863,
      "pro": 864,
      "##oli": 865,
      "##IN": 866,
      "##ade": 867,
      "##rol": 868,
      "##ult": 869,
      "ac": 870,
      "##ning": 871,
      "##th": 872,
      "cross": 873,
      "sun": 874,
      "piece": 875,
      "##ched": 876,
      "above": 877,
      "crowd": 878,
      "cam": 879,
      "##iger": 880,
      "##ess": 881,
      "stuffed": 882,
      "wine": 883,
      "##ccoli": 884,
      "##ggage": 885,
      "across": 886,
      "grazing": 887,
      "lo": 888,
      "beside": 889,
      "prep": 890,
      "travel": 891,
      "refr": 892,
      "ar": 893,
      "kn": 894,
      "long": 895,
      "##ust": 896,
      "refriger": 897,
      "skiing": 898,
      "luggage": 899,
      "snowy": 900,
      "##era": 901,
      "wor": 902,
      "This": 903,
      "broccoli": 904,
      "key": 905,
      "##uts": 906,
      "hanging": 907,
      "skate": 908,
      "vari": 909,
      "em": 910,
      "during": 911,
      "door": 912,
      "holds": 913,
      "refrigerator": 914,
      "##cor": 915,
      "##iting": 916,
      "##eng": 917,
      "tele": 918,
      "glasses": 919,
      "##ii": 920,
      "bag": 921,
      "camera": 922,
      "guy": 923,
      "kid": 924,
      "##las": 925,
      "##urn": 926,
      "doing": 927,
      "cows": 928,
      "THE": 929,
      "cle": 930,
      "##ted": 931,
      "don": 932,
      "past": 933,
      "##ire": 934,
      "##ten": 935,
      "bic": 936,
      "pink": 937,
      "##ese": 938,
      "tal": 939,
      "rem": 940,
      "##ries": 941,
      "buildings": 942,
      "pole": 943,
      "herd": 944,
      "color": 945,
      "oven": 946,
      "pap": 947,
      "keyboard": 948,
      "rac": 949,
      "##pty": 950,
      "rid": 951,
      "##ful": 952,
      "##out": 953,
      "##vis": 954,
      "decor": 955,
      "##RE": 956,
      "control": 957,
      "##us": 958,
      "pair": 959,
      "this": 960,
      "##ING": 961,
      "per": 962,
      "cutting": 963,
      "corner": 964,
      "double": 965,
      "going": 966,
      "ser": 967,
      "cab": 968,
      "track": 969,
      "umbrellas": 970,
      "empty": 971,
      "walk": 972,
      "who": 973,
      "stove": 974,
      "passeng": 975,
      "looks": 976,
      "watching": 977,
      "trick": 978,
      "##pe": 979,
      "cur": 980,
      "##ouse": 981,
      "bicycle": 982,
      "##vision": 983,
      "television": 984,
      "high": 985,
      "pot": 986,
      "##rush": 987,
      "children": 988,
      "jumping": 989,
      "##form": 990,
      "kites": 991,
      "chairs": 992,
      "##ccer": 993,
      "bar": 994,
      "bottle": 995,
      "mar": 996,
      "bre": 997,
      "ag": 998,
      "talking": 999,
      "soccer": 1000,
      "pit": 1001,
      "dogs": 1002,
      "traveling": 1003,
      "posing": 1004,
      "vide": 1005,
      "video": 1006,
      "suitc": 1007,
      "smiling": 1008,
      "swinging": 1009,
      "##ans": 1010,
      "din": 1011,
      "airport": 1012,
      "deck": 1013,
      "topped": 1014,
      "set": 1015,
      "##idge": 1016,
      "##ather": 1017,
      "att": 1018,
      "remot": 1019,
      "me": 1020,
      "using": 1021,
      "body": 1022,
      "boats": 1023,
      "getting": 1024,
      "##umb": 1025,
      "contain": 1026,
      "cabin": 1027,
      "##ces": 1028,
      "paper": 1029,
      "##oes": 1030,
      "pain": 1031,
      "animals": 1032,
      "pat": 1033,
      "again": 1034,
      "against": 1035,
      "##oth": 1036,
      "night": 1037,
      "##quet": 1038,
      "colorful": 1039,
      "fore": 1040,
      "lady": 1041,
      "throw": 1042,
      "##ffee": 1043,
      "brick": 1044,
      "mon": 1045,
      "home": 1046,
      "all": 1047,
      "##leep": 1048,
      "catch": 1049,
      "rail": 1050,
      "##arding": 1051,
      "coffee": 1052,
      "birds": 1053,
      "##ft": 1054,
      "item": 1055,
      "carrying": 1056,
      "river": 1057,
      "plates": 1058,
      "cheese": 1059,
      "jet": 1060,
      "him": 1061,
      "##ive": 1062,
      "banana": 1063,
      "Frisbee": 1064,
      "##omet": 1065,
      "apple": 1066,
      "##aur": 1067,
      "meat": 1068,
      "##akes": 1069,
      "pull": 1070,
      "##ored": 1071,
      "##aurant": 1072,
      "house": 1073,
      "bedroom": 1074,
      "tray": 1075,
      "##omething": 1076,
      "##ian": 1077,
      "##ool": 1078,
      "##iss": 1079,
      "##der": 1080,
      "restaurant": 1081,
      "lin": 1082,
      "lea": 1083,
      "waiting": 1084,
      "##ced": 1085,
      "something": 1086,
      "drink": 1087,
      "motorcycles": 1088,
      "##oll": 1089,
      "##ark": 1090,
      "bears": 1091,
      "lights": 1092,
      "clou": 1093,
      "shower": 1094,
      "remote": 1095,
      "Wii": 1096,
      "metal": 1097,
      "lots": 1098,
      "or": 1099,
      "shel": 1100,
      "boo": 1101,
      "can": 1102,
      "plant": 1103,
      "##alf": 1104,
      "enc": 1105,
      "##los": 1106,
      "runway": 1107,
      "pol": 1108,
      "players": 1109,
      "face": 1110,
      "various": 1111,
      "tile": 1112,
      "racquet": 1113,
      "##ection": 1114,
      "sleep": 1115,
      "about": 1116,
      "items": 1117,
      "mu": 1118,
      "ramp": 1119,
      "row": 1120,
      "outdo": 1121,
      "pitch": 1122,
      "enclos": 1123,
      "decker": 1124,
      "toy": 1125,
      "running": 1126,
      "res": 1127,
      "##ases": 1128,
      "##ars": 1129,
      "##ial": 1130,
      "inters": 1131,
      "dough": 1132,
      "mic": 1133,
      "pile": 1134,
      "book": 1135,
      "carro": 1136,
      "##oc": 1137,
      "line": 1138,
      "store": 1139,
      "busy": 1140,
      "screen": 1141,
      "##gra": 1142,
      "skateboarder": 1143,
      "rain": 1144,
      "mouth": 1145,
      "skier": 1146,
      "like": 1147,
      "hands": 1148,
      "hel": 1149,
      "##arm": 1150,
      "dressed": 1151,
      "intersection": 1152,
      "pur": 1153,
      "lying": 1154,
      "##ty": 1155,
      "passenger": 1156,
      "toward": 1157,
      "slic": 1158,
      "surfer": 1159,
      "monit": 1160,
      "##IT": 1161,
      "doughn": 1162,
      "seat": 1163,
      "##gs": 1164,
      "numb": 1165,
      "surfing": 1166,
      "Four": 1167,
      "sil": 1168,
      "suitcase": 1169,
      "IS": 1170,
      "ste": 1171,
      "##ler": 1172,
      "rock": 1173,
      "##ooking": 1174,
      "photogra": 1175,
      "##we": 1176,
      "##te": 1177,
      "tub": 1178,
      "shown": 1179,
      "##raw": 1180,
      "##ife": 1181,
      "pan": 1182,
      "half": 1183,
      "preparing": 1184,
      "slice": 1185,
      "made": 1186,
      "##ones": 1187,
      "rides": 1188,
      "brush": 1189,
      "gre": 1190,
      "##hic": 1191,
      "##uce": 1192,
      "male": 1193,
      "##pl": 1194,
      "pulling": 1195,
      "colored": 1196,
      "##issors": 1197,
      "ty": 1198,
      "look": 1199,
      "ha": 1200,
      "dark": 1201,
      "gray": 1202,
      "##cl": 1203,
      "surround": 1204,
      "batter": 1205,
      "jacket": 1206,
      "St": 1207,
      "##phone": 1208,
      "mat": 1209,
      "number": 1210,
      "sleeping": 1211,
      "##ading": 1212,
      "bridge": 1213,
      "no": 1214,
      "##oarding": 1215,
      "##ert": 1216,
      "enclosure": 1217,
      "##ny": 1218,
      "zoo": 1219,
      "##iz": 1220,
      "##ges": 1221,
      "scissors": 1222,
      "silver": 1223,
      "microw": 1224,
      "##art": 1225,
      "##ating": 1226,
      "vehic": 1227,
      "tooth": 1228,
      "way": 1229,
      "bet": 1230,
      "four": 1231,
      "post": 1232,
      "##eath": 1233,
      "knife": 1234,
      "hair": 1235,
      "##ond": 1236,
      "surrounded": 1237,
      "##ween": 1238,
      "between": 1239,
      "##AN": 1240,
      "forest": 1241,
      "donuts": 1242,
      "##aning": 1243,
      "microwave": 1244,
      "Many": 1245,
      "ON": 1246,
      "showing": 1247,
      "##ash": 1248,
      "lined": 1249,
      "##AT": 1250,
      "pill": 1251,
      "photograph": 1252,
      "##to": 1253,
      "meal": 1254,
      "bik": 1255,
      "decorated": 1256,
      "##oman": 1257,
      "bread": 1258,
      "##are": 1259,
      "lake": 1260,
      "##iform": 1261,
      "sal": 1262,
      "cabinets": 1263,
      "few": 1264,
      "walks": 1265,
      "carrots": 1266,
      "kids": 1267,
      "##ved": 1268,
      "uniform": 1269,
      "##per": 1270,
      "##ect": 1271,
      "mouse": 1272,
      "##anes": 1273,
      "blan": 1274,
      "##ached": 1275,
      "##lic": 1276,
      "bright": 1277,
      "##iture": 1278,
      "##elf": 1279,
      "furn": 1280,
      "scen": 1281,
      "cand": 1282,
      "furniture": 1283,
      "arm": 1284,
      "jump": 1285,
      "##ron": 1286,
      "bran": 1287,
      "##ud": 1288,
      "buses": 1289,
      "dock": 1290,
      "stick": 1291,
      "am": 1292,
      "books": 1293,
      "purple": 1294,
      "boys": 1295,
      "older": 1296,
      "Ch": 1297,
      "##pes": 1298,
      "stri": 1299,
      "##ows": 1300,
      "dish": 1301,
      "outdoor": 1302,
      "have": 1303,
      "pick": 1304,
      "gather": 1305,
      "TV": 1306,
      "tri": 1307,
      "shop": 1308,
      "cloudy": 1309,
      "ex": 1310,
      "##atoes": 1311,
      "##olate": 1312,
      "displayed": 1313,
      "##ER": 1314,
      "grey": 1315,
      "throwing": 1316,
      "incl": 1317,
      "##ime": 1318,
      "attached": 1319,
      "##old": 1320,
      "girls": 1321,
      "pe": 1322,
      "waves": 1323,
      "oranges": 1324,
      "stat": 1325,
      "##ocolate": 1326,
      "fork": 1327,
      "coming": 1328,
      "monitor": 1329,
      "##day": 1330,
      "onto": 1331,
      "making": 1332,
      "##ily": 1333,
      "leaning": 1334,
      "##ulti": 1335,
      "feed": 1336,
      "##oon": 1337,
      "helm": 1338,
      "clean": 1339,
      "windows": 1340,
      "##ings": 1341,
      "chocolate": 1342,
      "crossing": 1343,
      "Woman": 1344,
      "perform": 1345,
      "shelf": 1346,
      "##inking": 1347,
      "adult": 1348,
      "skiers": 1349,
      "dining": 1350,
      "salad": 1351,
      "stone": 1352,
      "##aut": 1353,
      "##ish": 1354,
      "##ance": 1355,
      "flower": 1356,
      "hu": 1357,
      "##irth": 1358,
      "painted": 1359,
      "rocks": 1360,
      "lamp": 1361,
      "scene": 1362,
      "country": 1363,
      "##irthday": 1364,
      "ho": 1365,
      "hitting": 1366,
      "watch": 1367,
      "drinking": 1368,
      "gi": 1369,
      "lush": 1370,
      "seen": 1371,
      "meter": 1372,
      "cats": 1373,
      "ob": 1374,
      "##dge": 1375,
      "OF": 1376,
      "basket": 1377,
      "##emale": 1378,
      "##LE": 1379,
      "walls": 1380,
      "##els": 1381,
      "##ne": 1382,
      "resting": 1383,
      "cook": 1384,
      "towards": 1385,
      "market": 1386,
      "##ents": 1387,
      "comm": 1388,
      "##sed": 1389,
      "birthday": 1390,
      "elect": 1391,
      "eng": 1392,
      "fla": 1393,
      "##by": 1394,
      "##int": 1395,
      "##ublic": 1396,
      "fre": 1397,
      "clear": 1398,
      "##astic": 1399,
      "sunny": 1400,
      "##ary": 1401,
      "office": 1402,
      "lay": 1403,
      "trail": 1404,
      "fries": 1405,
      "setting": 1406,
      "fruits": 1407,
      "##utter": 1408,
      "IN": 1409,
      "work": 1410,
      "blanket": 1411,
      "public": 1412,
      "tables": 1413,
      "##eth": 1414,
      "someone": 1415,
      "clot": 1416,
      "leaves": 1417,
      "##autif": 1418,
      "moving": 1419,
      "pen": 1420,
      "Sm": 1421,
      "female": 1422,
      "apples": 1423,
      "##aching": 1424,
      "stopped": 1425,
      "##jo": 1426,
      "plastic": 1427,
      "been": 1428,
      "edge": 1429,
      "##less": 1430,
      "prepar": 1431,
      "##ssort": 1432,
      "cre": 1433,
      "##ric": 1434,
      "teeth": 1435,
      "surfboards": 1436,
      "helmet": 1437,
      "platform": 1438,
      "enjo": 1439,
      "mountains": 1440,
      "path": 1441,
      "shap": 1442,
      "not": 1443,
      "shot": 1444,
      "pictures": 1445,
      "##autiful": 1446,
      "##ats": 1447,
      "ur": 1448,
      "tom": 1449,
      "tv": 1450,
      "smile": 1451,
      "working": 1452,
      "whe": 1453,
      "##oot": 1454,
      "Black": 1455,
      "bikes": 1456,
      "##lection": 1457,
      "ride": 1458,
      "##neath": 1459,
      "stack": 1460,
      "short": 1461,
      "underneath": 1462,
      "donut": 1463,
      "part": 1464,
      "topping": 1465,
      "trying": 1466,
      "spe": 1467,
      "toothb": 1468,
      "squ": 1469,
      "bel": 1470,
      "AN": 1471,
      "##ety": 1472,
      "sub": 1473,
      "branch": 1474,
      "cart": 1475,
      "beautiful": 1476,
      "##sp": 1477,
      "##hed": 1478,
      "statue": 1479,
      "##ear": 1480,
      "dist": 1481,
      "yard": 1482,
      "##rap": 1483,
      "controller": 1484,
      "draw": 1485,
      "pa": 1486,
      "snowboarder": 1487,
      "lap": 1488,
      "police": 1489,
      "roll": 1490,
      "##ug": 1491,
      "time": 1492,
      "##ally": 1493,
      "##AR": 1494,
      "slices": 1495,
      "turn": 1496,
      "Someone": 1497,
      "wire": 1498,
      "carri": 1499,
      "fac": 1500,
      "Young": 1501,
      "skateboarding": 1502,
      "van": 1503,
      "wet": 1504,
      "placed": 1505,
      "shows": 1506,
      "having": 1507,
      "perched": 1508,
      "pep": 1509,
      "Small": 1510,
      "cellphone": 1511,
      "##inal": 1512,
      "eaten": 1513,
      "shore": 1514,
      "sing": 1515,
      "##ling": 1516,
      "computers": 1517,
      "case": 1518,
      "##hers": 1519,
      "pieces": 1520,
      "##ist": 1521,
      "ent": 1522,
      "multi": 1523,
      "nice": 1524,
      "catcher": 1525,
      "passing": 1526,
      "THERE": 1527,
      "fri": 1528,
      "##mp": 1529,
      "wild": 1530,
      "dire": 1531,
      "surface": 1532,
      "gar": 1533,
      "put": 1534,
      "appl": 1535,
      "fresh": 1536,
      "fam": 1537,
      "sandy": 1538,
      "cooking": 1539,
      "##dern": 1540,
      "assort": 1541,
      "base": 1542,
      "vehicle": 1543,
      "dry": 1544,
      "sty": 1545,
      "##ITH": 1546,
      "WITH": 1547,
      "ey": 1548,
      "neck": 1549,
      "laptops": 1550,
      "vases": 1551,
      "mil": 1552,
      "##ition": 1553,
      "##ix": 1554,
      "conc": 1555,
      "##roup": 1556,
      "Large": 1557,
      "doughnut": 1558,
      "boards": 1559,
      "brushing": 1560,
      "types": 1561,
      "Group": 1562,
      "##ound": 1563,
      "tiled": 1564,
      "dinner": 1565,
      "applian": 1566,
      "land": 1567,
      "##ines": 1568,
      "hotel": 1569,
      "pizzas": 1570,
      "reading": 1571,
      "sauce": 1572,
      "beer": 1573,
      "toppings": 1574,
      "ca": 1575,
      "##inten": 1576,
      "##intendo": 1577,
      "##ely": 1578,
      "others": 1579,
      "##top": 1580,
      "##bor": 1581,
      "watches": 1582,
      "trun": 1583,
      "af": 1584,
      "##iti": 1585,
      "engine": 1586,
      "just": 1587,
      "##ides": 1588,
      "town": 1589,
      "##ement": 1590,
      "##icken": 1591,
      "end": 1592,
      "they": 1593,
      "trains": 1594,
      "##ley": 1595,
      "family": 1596,
      "##ail": 1597,
      "##vers": 1598,
      "pitcher": 1599,
      "kind": 1600,
      "##tain": 1601,
      "benches": 1602,
      "##dd": 1603,
      "pret": 1604,
      "##ages": 1605,
      "mounted": 1606,
      "##ject": 1607,
      "##py": 1608,
      "plants": 1609,
      "take": 1610,
      "##ized": 1611,
      "enjoying": 1612,
      "##ffiti": 1613,
      "##ins": 1614,
      "new": 1615,
      "##tub": 1616,
      "single": 1617,
      "##wn": 1618,
      "curb": 1619,
      "doughnuts": 1620,
      "##armac": 1621,
      "##ures": 1622,
      "equ": 1623,
      "bathtub": 1624,
      "gear": 1625,
      "tan": 1626,
      "sof": 1627,
      "##bo": 1628,
      "sail": 1629,
      "modern": 1630,
      "distance": 1631,
      "tarmac": 1632,
      "##road": 1633,
      "left": 1634,
      "##ming": 1635,
      "chicken": 1636,
      "rack": 1637,
      "phones": 1638,
      "egg": 1639,
      "see": 1640,
      "after": 1641,
      "performing": 1642,
      "pretty": 1643,
      "##cial": 1644,
      "flat": 1645,
      "place": 1646,
      "variety": 1647,
      "##ger": 1648,
      "woods": 1649,
      "gathered": 1650,
      "trucks": 1651,
      "pad": 1652,
      "##di": 1653,
      "shoes": 1654,
      "guys": 1655,
      "tricks": 1656,
      "cent": 1657,
      "One": 1658,
      "appliances": 1659,
      "##cing": 1660,
      "fenced": 1661,
      "hotdo": 1662,
      "pack": 1663,
      "##edest": 1664,
      "bowls": 1665,
      "containing": 1666,
      "fly": 1667,
      "##eep": 1668,
      "ce": 1669,
      "feat": 1670,
      "swim": 1671,
      "arran": 1672,
      "glo": 1673,
      "rice": 1674,
      "graffiti": 1675,
      "dess": 1676,
      "##place": 1677,
      "curtain": 1678,
      "candles": 1679,
      "flies": 1680,
      "##stru": 1681,
      "cute": 1682,
      "pas": 1683,
      "##ower": 1684,
      "well": 1685,
      "stair": 1686,
      "carriage": 1687,
      "bal": 1688,
      "feeding": 1689,
      "pasture": 1690,
      "##rete": 1691,
      "equip": 1692,
      "concrete": 1693,
      "fr": 1694,
      "##que": 1695,
      "toothbrush": 1696,
      "AND": 1697,
      "du": 1698,
      "##ll": 1699,
      "tran": 1700,
      "poles": 1701,
      "team": 1702,
      "below": 1703,
      "bottles": 1704,
      "Gir": 1705,
      "poin": 1706,
      "passengers": 1707,
      "was": 1708,
      "##uding": 1709,
      "spoon": 1710,
      "bags": 1711,
      "railroad": 1712,
      "##ronic": 1713,
      "##chool": 1714,
      "match": 1715,
      "##its": 1716,
      "##pack": 1717,
      "right": 1718,
      "including": 1719,
      "##os": 1720,
      "wii": 1721,
      "center": 1722,
      "foot": 1723,
      "##head": 1724,
      "dirty": 1725,
      "onion": 1726,
      "drinks": 1727,
      "##iding": 1728,
      "steel": 1729,
      "takes": 1730,
      "##me": 1731,
      "pillows": 1732,
      "shaped": 1733,
      "##OM": 1734,
      "sofa": 1735,
      "fireplace": 1736,
      "break": 1737,
      "##ini": 1738,
      "ST": 1739,
      "##ession": 1740,
      "school": 1741,
      "pul": 1742,
      "among": 1743,
      "##intage": 1744,
      "##ged": 1745,
      "backpack": 1746,
      "##light": 1747,
      "striped": 1748,
      "step": 1749,
      "clutter": 1750,
      "##ads": 1751,
      "pulled": 1752,
      "ble": 1753,
      "##ips": 1754,
      "Nintendo": 1755,
      "pedest": 1756,
      "alone": 1757,
      "crowded": 1758,
      "electronic": 1759,
      "wr": 1760,
      "##sc": 1761,
      "##iches": 1762,
      "nearby": 1763,
      "##ush": 1764,
      "beds": 1765,
      "wrap": 1766,
      "##ied": 1767,
      "catching": 1768,
      "##lder": 1769,
      "fridge": 1770,
      "app": 1771,
      "##ber": 1772,
      "##rist": 1773,
      "##AL": 1774,
      "##ball": 1775,
      "skateboards": 1776,
      "painting": 1777,
      "trunk": 1778,
      "##urch": 1779,
      "object": 1780,
      "cabinet": 1781,
      "cream": 1782,
      "##ames": 1783,
      "prop": 1784,
      "container": 1785,
      "loc": 1786,
      "style": 1787,
      "direction": 1788,
      "cattle": 1789,
      "feet": 1790,
      "sinks": 1791,
      "equipment": 1792,
      "boxes": 1793,
      "qu": 1794,
      "served": 1795,
      "huge": 1796,
      "##ural": 1797,
      "plays": 1798,
      "polar": 1799,
      "##fession": 1800,
      "##ical": 1801,
      "##amb": 1802,
      "bushes": 1803,
      "reaching": 1804,
      "sandwiches": 1805,
      "##anding": 1806,
      "art": 1807,
      "mess": 1808,
      "where": 1809,
      "planes": 1810,
      "church": 1811,
      "putting": 1812,
      "but": 1813,
      "floating": 1814,
      "fan": 1815,
      "smiles": 1816,
      "kne": 1817,
      "##fessional": 1818,
      "##alm": 1819,
      "stall": 1820,
      "poses": 1821,
      "round": 1822,
      "##ycl": 1823,
      "##aken": 1824,
      "suitcases": 1825,
      "atop": 1826,
      "giant": 1827,
      "sticking": 1828,
      "vintage": 1829,
      "##eling": 1830,
      "away": 1831,
      "taken": 1832,
      "both": 1833,
      "prepares": 1834,
      "tomatoes": 1835,
      "serve": 1836,
      "lays": 1837,
      "towel": 1838,
      "legs": 1839,
      "clothes": 1840,
      "fo": 1841,
      "gold": 1842,
      "hay": 1843,
      "space": 1844,
      "wed": 1845,
      "##lin": 1846,
      "bicycles": 1847,
      "##ons": 1848,
      "##aked": 1849,
      "serving": 1850,
      "##land": 1851,
      "##RO": 1852,
      "sliced": 1853,
      "dishes": 1854,
      "ju": 1855,
      "##ercial": 1856,
      "staring": 1857,
      "##elling": 1858,
      "##lasses": 1859,
      "potatoes": 1860,
      "##ock": 1861,
      "##lers": 1862,
      "##ious": 1863,
      "##iness": 1864,
      "check": 1865,
      "##set": 1866,
      "##EN": 1867,
      "##ato": 1868,
      "blo": 1869,
      "stain": 1870,
      "##owing": 1871,
      "form": 1872,
      "pose": 1873,
      "vehicles": 1874,
      "sou": 1875,
      "##IS": 1876,
      "##fast": 1877,
      "dev": 1878,
      "offic": 1879,
      "##mas": 1880,
      "foods": 1881,
      "##ashion": 1882,
      "Stre": 1883,
      "cement": 1884,
      "which": 1885,
      "##cy": 1886,
      "led": 1887,
      "##vent": 1888,
      "##ates": 1889,
      "multiple": 1890,
      "##rench": 1891,
      "fashion": 1892,
      "design": 1893,
      "##unch": 1894,
      "##rash": 1895,
      "shorts": 1896,
      "reflection": 1897,
      "pool": 1898,
      "##ristmas": 1899,
      "Street": 1900,
      "let": 1901,
      "Sk": 1902,
      "##iny": 1903,
      "Bo": 1904,
      "rust": 1905,
      "business": 1906,
      "stacked": 1907,
      "##OP": 1908,
      "##ward": 1909,
      "##ique": 1910,
      "tour": 1911,
      "##aded": 1912,
      "appe": 1913,
      "smo": 1914,
      "roo": 1915,
      "##ular": 1916,
      "ear": 1917,
      "##boarding": 1918,
      "same": 1919,
      "rug": 1920,
      "##ract": 1921,
      "airplanes": 1922,
      "ARE": 1923,
      "win": 1924,
      "subway": 1925,
      "ump": 1926,
      "##rus": 1927,
      "pillow": 1928,
      "##ugh": 1929,
      "##man": 1930,
      "##ES": 1931,
      "##arden": 1932,
      "commercial": 1933,
      "Person": 1934,
      "del": 1935,
      "straw": 1936,
      "##urry": 1937,
      "professional": 1938,
      "cap": 1939,
      "##ants": 1940,
      "tur": 1941,
      "trash": 1942,
      "surfers": 1943,
      "swings": 1944,
      "breakfast": 1945,
      "outdoors": 1946,
      "docked": 1947,
      "soup": 1948,
      "As": 1949,
      "##ier": 1950,
      "##AS": 1951,
      "seated": 1952,
      "umpire": 1953,
      "outf": 1954,
      "urinal": 1955,
      "farm": 1956,
      "frien": 1957,
      "garden": 1958,
      "kitten": 1959,
      "dessert": 1960,
      "sung": 1961,
      "games": 1962,
      "##ual": 1963,
      "##ET": 1964,
      "sunglasses": 1965,
      "swimming": 1966,
      "mother": 1967,
      "cluttered": 1968,
      "hard": 1969,
      "##ige": 1970,
      "square": 1971,
      "pedestri": 1972,
      "##fe": 1973,
      "##artment": 1974,
      "flag": 1975,
      "##ban": 1976,
      "##ults": 1977,
      "get": 1978,
      "couches": 1979,
      "ant": 1980,
      "highway": 1981,
      "##struction": 1982,
      "boarding": 1983,
      "overl": 1984,
      "##itary": 1985,
      "low": 1986,
      "fun": 1987,
      "##kets": 1988,
      "cooked": 1989,
      "hotdog": 1990,
      "##let": 1991,
      "Tra": 1992,
      "blender": 1993,
      "##liner": 1994,
      "pepper": 1995,
      "wedding": 1996,
      "lone": 1997,
      "clocks": 1998,
      "mach": 1999,
      "controllers": 2000,
      "say": 2001,
      "##ned": 2002,
      "bur": 2003,
      "##bb": 2004,
      "drawn": 2005,
      "##pp": 2006,
      "cli": 2007,
      "ret": 2008,
      "drives": 2009,
      "hillside": 2010,
      "Wh": 2011,
      "ice": 2012,
      "##OT": 2013,
      "kick": 2014,
      "wheel": 2015,
      "##rop": 2016,
      "har": 2017,
      "ter": 2018,
      "##oni": 2019,
      "doors": 2020,
      "restroom": 2021,
      "##br": 2022,
      "rocky": 2023,
      "lad": 2024,
      "jumps": 2025,
      "ledge": 2026,
      "fra": 2027,
      "##uff": 2028,
      "##og": 2029,
      "##vert": 2030,
      "ceiling": 2031,
      "signal": 2032,
      "eyes": 2033,
      "cra": 2034,
      "##read": 2035,
      "##ists": 2036,
      "wooded": 2037,
      "desktop": 2038,
      "##uit": 2039,
      "prod": 2040,
      "##ef": 2041,
      "onions": 2042,
      "facing": 2043,
      "lawn": 2044,
      "does": 2045,
      "inter": 2046,
      "Clo": 2047,
      "flock": 2048,
      "##av": 2049,
      "acc": 2050,
      "##ident": 2051,
      "##io": 2052,
      "eats": 2053,
      "fall": 2054,
      "##OW": 2055,
      "stainless": 2056,
      "sho": 2057,
      "##ump": 2058,
      "Asian": 2059,
      "shelves": 2060,
      "pointing": 2061,
      "##nic": 2062,
      "##fore": 2063,
      "stairs": 2064,
      "fish": 2065,
      "##made": 2066,
      "tou": 2067,
      "skies": 2068,
      "desert": 2069,
      "things": 2070,
      "race": 2071,
      "appro": 2072,
      "##ken": 2073,
      "##irc": 2074,
      "##OR": 2075,
      "before": 2076,
      "##ED": 2077,
      "nap": 2078,
      "event": 2079,
      "cups": 2080,
      "ext": 2081,
      "includ": 2082,
      "mod": 2083,
      "clouds": 2084,
      "Christmas": 2085,
      "free": 2086,
      "##uter": 2087,
      "glove": 2088,
      "##mer": 2089,
      "make": 2090,
      "hold": 2091,
      "##pers": 2092,
      "card": 2093,
      "doll": 2094,
      "sea": 2095,
      "##ON": 2096,
      "##arrow": 2097,
      "steps": 2098,
      "##vertis": 2099,
      "gate": 2100,
      "coat": 2101,
      "disc": 2102,
      "fashioned": 2103,
      "cru": 2104,
      "##icks": 2105,
      "roof": 2106,
      "Zeb": 2107,
      "stru": 2108,
      "says": 2109,
      "todd": 2110,
      "assortment": 2111,
      "##IR": 2112,
      "Men": 2113,
      "##ative": 2114,
      "neat": 2115,
      "compet": 2116,
      "vegg": 2117,
      "eggs": 2118,
      "cost": 2119,
      "type": 2120,
      "military": 2121,
      "##DING": 2122,
      "rackets": 2123,
      "attem": 2124,
      "arranged": 2125,
      "##ations": 2126,
      "arms": 2127,
      "##rushes": 2128,
      "circ": 2129,
      "##act": 2130,
      "Air": 2131,
      "##tom": 2132,
      "costum": 2133,
      "pond": 2134,
      "##ded": 2135,
      "snowboarding": 2136,
      "##cture": 2137,
      "advertis": 2138,
      "cla": 2139,
      "fig": 2140,
      "chop": 2141,
      "monitors": 2142,
      "##ount": 2143,
      "cloth": 2144,
      "floors": 2145,
      "##od": 2146,
      "##aches": 2147,
      "##pet": 2148,
      "##phones": 2149,
      "Giraff": 2150,
      "##az": 2151,
      "##xing": 2152,
      "party": 2153,
      "landing": 2154,
      "##ia": 2155,
      "french": 2156,
      "star": 2157,
      "##cakes": 2158,
      "picnic": 2159,
      "broken": 2160,
      "graze": 2161,
      "bottom": 2162,
      "##AC": 2163,
      "lunch": 2164,
      "overlooking": 2165,
      "cage": 2166,
      "lett": 2167,
      "tied": 2168,
      "construction": 2169,
      "##ork": 2170,
      "boarder": 2171,
      "kneeling": 2172,
      "##key": 2173,
      "##ape": 2174,
      "toddler": 2175,
      "White": 2176,
      "dep": 2177,
      "ind": 2178,
      "spr": 2179,
      "##ser": 2180,
      "##ium": 2181,
      "##ony": 2182,
      "must": 2183,
      "mini": 2184,
      "##go": 2185,
      "##ering": 2186,
      "MAN": 2187,
      "mas": 2188,
      "mix": 2189,
      "trans": 2190,
      "narrow": 2191,
      "colors": 2192,
      "##uc": 2193,
      "steam": 2194,
      "##self": 2195,
      "closed": 2196,
      "reads": 2197,
      "skating": 2198,
      "fight": 2199,
      "wide": 2200,
      "adults": 2201,
      "##ered": 2202,
      "electric": 2203,
      "port": 2204,
      "rider": 2205,
      "gl": 2206,
      "machine": 2207,
      "net": 2208,
      "sides": 2209,
      "indo": 2210,
      "Vari": 2211,
      "mag": 2212,
      "##ially": 2213,
      "bever": 2214,
      "opp": 2215,
      "pots": 2216,
      "Bas": 2217,
      "##ils": 2218,
      "himself": 2219,
      "trailer": 2220,
      "##vid": 2221,
      "overhead": 2222,
      "sweat": 2223,
      "suits": 2224,
      "sale": 2225,
      "##IC": 2226,
      "ket": 2227,
      "tw": 2228,
      "##ns": 2229,
      "Cat": 2230,
      "##adow": 2231,
      "She": 2232,
      "cakes": 2233,
      "ship": 2234,
      "##AY": 2235,
      "plain": 2236,
      "walkway": 2237,
      "PL": 2238,
      "messy": 2239,
      "chef": 2240,
      "appears": 2241,
      "Five": 2242,
      "##red": 2243,
      "pasta": 2244,
      "chain": 2245,
      "carpet": 2246,
      "leather": 2247,
      "pract": 2248,
      "##ican": 2249,
      "foreground": 2250,
      "features": 2251,
      "grill": 2252,
      "THAT": 2253,
      "ties": 2254,
      "rela": 2255,
      "bite": 2256,
      "smart": 2257,
      "orn": 2258,
      "assorted": 2259,
      "##ory": 2260,
      "fancy": 2261,
      "veggies": 2262,
      "##na": 2263,
      "shade": 2264,
      "##ence": 2265,
      "cons": 2266,
      "pants": 2267,
      "##ired": 2268,
      "speed": 2269,
      "pr": 2270,
      "hou": 2271,
      "##lect": 2272,
      "sunset": 2273,
      "stret": 2274,
      "pos": 2275,
      "transit": 2276,
      "towels": 2277,
      "friends": 2278,
      "block": 2279,
      "good": 2280,
      "shou": 2281,
      "Red": 2282,
      "held": 2283,
      "pier": 2284,
      "##ators": 2285,
      "##ooter": 2286,
      "loaded": 2287,
      "still": 2288,
      "carrot": 2289,
      "paw": 2290,
      "toilets": 2291,
      "teen": 2292,
      "partially": 2293,
      "beard": 2294,
      "photos": 2295,
      "urban": 2296,
      "##iers": 2297,
      "sport": 2298,
      "mush": 2299,
      "device": 2300,
      "Baseball": 2301,
      "sill": 2302,
      "clothing": 2303,
      "pepperoni": 2304,
      "position": 2305,
      "mushroom": 2306,
      "##OU": 2307,
      "##urf": 2308,
      "scooter": 2309,
      "mis": 2310,
      "wrapped": 2311,
      "beneath": 2312,
      "pastries": 2313,
      "action": 2314,
      "drive": 2315,
      "lies": 2316,
      "hole": 2317,
      "Various": 2318,
      "leash": 2319,
      "palm": 2320,
      "toast": 2321,
      "##ise": 2322,
      "##laz": 2323,
      "toys": 2324,
      "propell": 2325,
      "kinds": 2326,
      "gets": 2327,
      "hap": 2328,
      "##ives": 2329,
      "vis": 2330,
      "racing": 2331,
      "outfit": 2332,
      "Close": 2333,
      "Ad": 2334,
      "makes": 2335,
      "##house": 2336,
      "structure": 2337,
      "power": 2338,
      "##ring": 2339,
      "chips": 2340,
      "contains": 2341,
      "flip": 2342,
      "railing": 2343,
      "pee": 2344,
      "##ib": 2345,
      "giving": 2346,
      "pastry": 2347,
      "tomato": 2348,
      "Pl": 2349,
      "saus": 2350,
      "harbor": 2351,
      "sprink": 2352,
      "winter": 2353,
      "tag": 2354,
      "what": 2355,
      "##tered": 2356,
      "mud": 2357,
      "houses": 2358,
      "wets": 2359,
      "apartment": 2360,
      "petting": 2361,
      "used": 2362,
      "sy": 2363,
      "bull": 2364,
      "##ighting": 2365,
      "doorway": 2366,
      "grow": 2367,
      "smoke": 2368,
      "includes": 2369,
      "lettuce": 2370,
      "dra": 2371,
      "##very": 2372,
      "##tens": 2373,
      "fighter": 2374,
      "rests": 2375,
      "fur": 2376,
      "sized": 2377,
      "use": 2378,
      "##agull": 2379,
      "island": 2380,
      "garage": 2381,
      "model": 2382,
      "##cting": 2383,
      "##cket": 2384,
      "sheet": 2385,
      "class": 2386,
      "sort": 2387,
      "peppers": 2388,
      "lid": 2389,
      "comf": 2390,
      "baked": 2391,
      "##nding": 2392,
      "##yard": 2393,
      "sod": 2394,
      "leading": 2395,
      "self": 2396,
      "spot": 2397,
      "##sting": 2398,
      "##ird": 2399,
      "foll": 2400,
      "##bs": 2401,
      "antique": 2402,
      "siz": 2403,
      "mound": 2404,
      "opened": 2405,
      "decorative": 2406,
      "vanity": 2407,
      "##par": 2408,
      "##KING": 2409,
      "##itten": 2410,
      "streets": 2411,
      "##acon": 2412,
      "ma": 2413,
      "##mon": 2414,
      "vest": 2415,
      "blond": 2416,
      "..": 2417,
      "lift": 2418,
      "leaf": 2419,
      "##lage": 2420,
      "##ray": 2421,
      "##idential": 2422,
      "med": 2423,
      "beans": 2424,
      "waits": 2425,
      "containers": 2426,
      "papers": 2427,
      "prepared": 2428,
      "rural": 2429,
      "##ost": 2430,
      "upside": 2431,
      "Bl": 2432,
      "utens": 2433,
      "stunt": 2434,
      "##be": 2435,
      "##ulpt": 2436,
      "candle": 2437,
      "commuter": 2438,
      "bou": 2439,
      "##OO": 2440,
      "Child": 2441,
      "turned": 2442,
      "mit": 2443,
      "writing": 2444,
      "nood": 2445,
      "##aster": 2446,
      "flight": 2447,
      "shopping": 2448,
      "##gon": 2449,
      "hats": 2450,
      "bacon": 2451,
      "ripe": 2452,
      "mug": 2453,
      "produce": 2454,
      "pave": 2455,
      "pans": 2456,
      "five": 2457,
      "blurry": 2458,
      "heads": 2459,
      "hood": 2460,
      "sheets": 2461,
      "alongside": 2462,
      "barn": 2463,
      "nose": 2464,
      "pavement": 2465,
      "war": 2466,
      "##ield": 2467,
      "sculpt": 2468,
      "soda": 2469,
      "##hel": 2470,
      "##alle": 2471,
      "frosting": 2472,
      "##yclist": 2473,
      "juice": 2474,
      "meters": 2475,
      "strawber": 2476,
      "climb": 2477,
      "je": 2478,
      "##bage": 2479,
      "##eds": 2480,
      "cond": 2481,
      "groom": 2482,
      "snowboards": 2483,
      "paddle": 2484,
      "##ining": 2485,
      "bush": 2486,
      "log": 2487,
      "patio": 2488,
      "##erial": 2489,
      "stream": 2490,
      "lamb": 2491,
      "remotes": 2492,
      "##ens": 2493,
      "touching": 2494,
      "TO": 2495,
      "##ette": 2496,
      "laid": 2497,
      "smaller": 2498,
      "branches": 2499,
      "milk": 2500,
      "pipe": 2501,
      "directions": 2502,
      "##ible": 2503,
      "##ital": 2504,
      "##aper": 2505,
      "residential": 2506,
      "purse": 2507,
      "brightly": 2508,
      "tank": 2509,
      "tiny": 2510,
      "##iv": 2511,
      "##chup": 2512,
      "seagull": 2513,
      "tea": 2514,
      "sailing": 2515,
      "rainy": 2516,
      "kicking": 2517,
      "ketchup": 2518,
      "PE": 2519,
      "itself": 2520,
      "parade": 2521,
      "urinals": 2522,
      "wetsuit": 2523,
      "built": 2524,
      "displaying": 2525,
      "loading": 2526,
      "term": 2527,
      "costume": 2528,
      "##med": 2529,
      "dresser": 2530,
      "AT": 2531,
      "persons": 2532,
      "riders": 2533,
      "##kin": 2534,
      "officer": 2535,
      "Cars": 2536,
      "deep": 2537,
      "ta": 2538,
      "you": 2539,
      "##bile": 2540,
      "closeup": 2541,
      "beige": 2542,
      "tent": 2543,
      "lines": 2544,
      "##scape": 2545,
      "mustard": 2546,
      "cub": 2547,
      "cour": 2548,
      "personal": 2549,
      "rear": 2550,
      "sem": 2551,
      "flags": 2552,
      "In": 2553,
      "##ature": 2554,
      "enclosed": 2555,
      "terminal": 2556,
      "##ina": 2557,
      "sliding": 2558,
      "butter": 2559,
      "platter": 2560,
      "ador": 2561,
      "ow": 2562,
      "pup": 2563,
      "##AB": 2564,
      "##opes": 2565,
      "sup": 2566,
      "uniforms": 2567,
      "pedestrians": 2568,
      "utensils": 2569,
      "decorations": 2570,
      "##cra": 2571,
      "##TING": 2572,
      "Boy": 2573,
      "mushrooms": 2574,
      "##gging": 2575,
      "approaching": 2576,
      "practic": 2577,
      "tail": 2578,
      "noodles": 2579,
      "hall": 2580,
      "##ness": 2581,
      "##ange": 2582,
      "leg": 2583,
      "goes": 2584,
      "throws": 2585,
      "sausage": 2586,
      "waters": 2587,
      "##lderly": 2588,
      "uses": 2589,
      "##pting": 2590,
      "leans": 2591,
      "exp": 2592,
      "eye": 2593,
      "ham": 2594,
      "rais": 2595,
      "balan": 2596,
      "##ALL": 2597,
      "sweater": 2598,
      "##wing": 2599,
      "##allow": 2600,
      "glaz": 2601,
      "##gre": 2602,
      "##IL": 2603,
      "##ster": 2604,
      "shoe": 2605,
      "course": 2606,
      "cas": 2607,
      "##iff": 2608,
      "ducks": 2609,
      "ladies": 2610,
      "View": 2611,
      "hangs": 2612,
      "trays": 2613,
      "pickup": 2614,
      "##OPLE": 2615,
      "BO": 2616,
      "##yclists": 2617,
      "##vidual": 2618,
      "Multi": 2619,
      "##ctor": 2620,
      "wait": 2621,
      "PEOPLE": 2622,
      "##IG": 2623,
      "greens": 2624,
      "pulls": 2625,
      "posted": 2626,
      "written": 2627,
      "propeller": 2628,
      "gas": 2629,
      "mitt": 2630,
      "##ior": 2631,
      "collection": 2632,
      "deli": 2633,
      "freez": 2634,
      "beverage": 2635,
      "It": 2636,
      "##aged": 2637,
      "##ully": 2638,
      "attempting": 2639,
      "pour": 2640,
      "##co": 2641,
      "only": 2642,
      "growing": 2643,
      "Hor": 2644,
      "Old": 2645,
      "stad": 2646,
      "liqu": 2647,
      "runs": 2648,
      "crosswalk": 2649,
      "Mot": 2650,
      "paint": 2651,
      "semi": 2652,
      "##hill": 2653,
      "indi": 2654,
      "##omot": 2655,
      "pres": 2656,
      "fried": 2657,
      "##craft": 2658,
      "push": 2659,
      "passes": 2660,
      "rolling": 2661,
      "stadium": 2662,
      "tong": 2663,
      "Zebras": 2664,
      "##ath": 2665,
      "laugh": 2666,
      "##boat": 2667,
      "transp": 2668,
      "indoor": 2669,
      "suppl": 2670,
      "ol": 2671,
      "##so": 2672,
      "##nel": 2673,
      "##rounding": 2674,
      "surrounding": 2675,
      "comple": 2676,
      "##case": 2677,
      "neatly": 2678,
      "relaxing": 2679,
      "##ware": 2680,
      "##als": 2681,
      "bending": 2682,
      "curled": 2683,
      "ornate": 2684,
      "curtains": 2685,
      "cal": 2686,
      "rope": 2687,
      "guit": 2688,
      "fake": 2689,
      "##erts": 2690,
      "happy": 2691,
      "##omotive": 2692,
      "supplies": 2693,
      "gent": 2694,
      "##ues": 2695,
      "tops": 2696,
      "bride": 2697,
      "lamps": 2698,
      "Girl": 2699,
      "jets": 2700,
      "##gan": 2701,
      "missing": 2702,
      "Amer": 2703,
      "##ike": 2704,
      "##ms": 2705,
      "siting": 2706,
      "patter": 2707,
      "micro": 2708,
      "TR": 2709,
      "##ishing": 2710,
      "handle": 2711,
      "##usk": 2712,
      "Ele": 2713,
      "char": 2714,
      "aircraft": 2715,
      "life": 2716,
      "Gu": 2717,
      "elderly": 2718,
      "sticks": 2719,
      "##rance": 2720,
      "bunches": 2721,
      "##ggy": 2722,
      "potted": 2723,
      "paved": 2724,
      "duck": 2725,
      "##ole": 2726,
      "strip": 2727,
      "##ooked": 2728,
      "wires": 2729,
      "frame": 2730,
      "sim": 2731,
      "##ton": 2732,
      "tool": 2733,
      "##seum": 2734,
      "goats": 2735,
      "##CH": 2736,
      "balls": 2737,
      "falling": 2738,
      "Looking": 2739,
      "crou": 2740,
      "##akers": 2741,
      "most": 2742,
      "wheels": 2743,
      "##uffy": 2744,
      "if": 2745,
      "por": 2746,
      "snack": 2747,
      "performs": 2748,
      "bell": 2749,
      "fast": 2750,
      "roses": 2751,
      "baskets": 2752,
      "individual": 2753,
      "without": 2754,
      "telephone": 2755,
      "haired": 2756,
      "packed": 2757,
      "how": 2758,
      "toss": 2759,
      "##oral": 2760,
      "roadway": 2761,
      "piled": 2762,
      "gentle": 2763,
      "##cake": 2764,
      "##sted": 2765,
      "bookshel": 2766,
      "##ERS": 2767,
      "stool": 2768,
      "##ices": 2769,
      "wagon": 2770,
      "capt": 2771,
      "##avy": 2772,
      "dim": 2773,
      "##ID": 2774,
      "##fl": 2775,
      "airliner": 2776,
      "separ": 2777,
      "adj": 2778,
      "##osite": 2779,
      "locomotive": 2780,
      "tax": 2781,
      "##lebr": 2782,
      "reflect": 2783,
      "arrange": 2784,
      "practicing": 2785,
      "section": 2786,
      "##umer": 2787,
      "talks": 2788,
      "tiles": 2789,
      "formation": 2790,
      "sculpture": 2791,
      "Motor": 2792,
      "motion": 2793,
      "selfie": 2794,
      "jeans": 2795,
      "Com": 2796,
      "TW": 2797,
      "pet": 2798,
      "here": 2799,
      "celebr": 2800,
      "electronics": 2801,
      "sports": 2802,
      "Multiple": 2803,
      "sold": 2804,
      "glazed": 2805,
      "SU": 2806,
      "aw": 2807,
      "shallow": 2808,
      "coll": 2809,
      "cupboard": 2810,
      "Sheep": 2811,
      "shoulder": 2812,
      "guitar": 2813,
      "##EL": 2814,
      "also": 2815,
      "mirrors": 2816,
      "arrangement": 2817,
      "steep": 2818,
      "cycle": 2819,
      "##end": 2820,
      "shirtless": 2821,
      "soft": 2822,
      "landscape": 2823,
      "Elephant": 2824,
      "foc": 2825,
      "trol": 2826,
      "##kes": 2827,
      "flown": 2828,
      "##risbe": 2829,
      "We": 2830,
      "##line": 2831,
      "##ooks": 2832,
      "floral": 2833,
      "covering": 2834,
      "##aker": 2835,
      "toothbrushes": 2836,
      "freezer": 2837,
      "American": 2838,
      "SK": 2839,
      "bucket": 2840,
      "garbage": 2841,
      "##dients": 2842,
      "Kit": 2843,
      "toaster": 2844,
      "museum": 2845,
      "Giraffes": 2846,
      "opposite": 2847,
      "Children": 2848,
      "selling": 2849,
      "##range": 2850,
      "TWO": 2851,
      "\".": 2852,
      "cer": 2853,
      "##ough": 2854,
      "##eback": 2855,
      "spread": 2856,
      "fir": 2857,
      "##ountain": 2858,
      "pine": 2859,
      "##bow": 2860,
      "##ots": 2861,
      "holder": 2862,
      "sniff": 2863,
      "travels": 2864,
      "jetliner": 2865,
      "hors": 2866,
      "exh": 2867,
      "cop": 2868,
      "##asing": 2869,
      "cones": 2870,
      "pitching": 2871,
      "patch": 2872,
      "return": 2873,
      "##ABLE": 2874,
      "tongue": 2875,
      "Ben": 2876,
      "cool": 2877,
      "rub": 2878,
      "dead": 2879,
      "hits": 2880,
      "##essor": 2881,
      "fing": 2882,
      "stra": 2883,
      "##cking": 2884,
      "shirts": 2885,
      "sprinkles": 2886,
      "##abit": 2887,
      "paras": 2888,
      "##allen": 2889,
      "Br": 2890,
      "Adult": 2891,
      "Guy": 2892,
      "Big": 2893,
      "ingre": 2894,
      "fallen": 2895,
      "hum": 2896,
      "##UT": 2897,
      "asleep": 2898,
      "objects": 2899,
      "Lit": 2900,
      "##ways": 2901,
      "##ertain": 2902,
      "pushing": 2903,
      "horseback": 2904,
      "icing": 2905,
      "##GE": 2906,
      "stuck": 2907,
      "headphones": 2908,
      "blankets": 2909,
      "mus": 2910,
      "##ater": 2911,
      "##umin": 2912,
      "bank": 2913,
      "images": 2914,
      "corn": 2915,
      "hotdogs": 2916,
      "competition": 2917,
      "##izz": 2918,
      "##eled": 2919,
      "##rot": 2920,
      "##icious": 2921,
      "muff": 2922,
      "##ACK": 2923,
      "ingredients": 2924,
      "pictured": 2925,
      "##ARD": 2926,
      "Dog": 2927,
      "habit": 2928,
      "skirt": 2929,
      "counters": 2930,
      "marble": 2931,
      "homemade": 2932,
      "faces": 2933,
      "newsp": 2934,
      "pedestrian": 2935,
      "visible": 2936,
      "Surf": 2937,
      "buff": 2938,
      "motorb": 2939,
      "puppy": 2940,
      "Pic": 2941,
      "##time": 2942,
      "##aming": 2943,
      "mult": 2944,
      "tu": 2945,
      "fluffy": 2946,
      "stoplight": 2947,
      "checkered": 2948,
      "Ap": 2949,
      "SIT": 2950,
      "##ids": 2951,
      "downhill": 2952,
      "Cows": 2953,
      "gro": 2954,
      "string": 2955,
      "##cked": 2956,
      "spect": 2957,
      "rolls": 2958,
      "strawberries": 2959,
      "climbing": 2960,
      "mop": 2961,
      "frosted": 2962,
      "reaches": 2963,
      "wears": 2964,
      "entrance": 2965,
      "##OL": 2966,
      "##bed": 2967,
      "featuring": 2968,
      "habitat": 2969,
      "fin": 2970,
      "tast": 2971,
      "neon": 2972,
      "##amic": 2973,
      "balloon": 2974,
      "leap": 2975,
      "cupcakes": 2976,
      "BE": 2977,
      "##vy": 2978,
      "ang": 2979,
      "STRE": 2980,
      "Little": 2981,
      "Sn": 2982,
      "##ATE": 2983,
      "gathering": 2984,
      "tab": 2985,
      "moves": 2986,
      "whole": 2987,
      "organ": 2988,
      "furnis": 2989,
      "STREET": 2990,
      "##ondon": 2991,
      "pouring": 2992,
      "range": 2993,
      "##oned": 2994,
      "carries": 2995,
      "aut": 2996,
      "feeder": 2997,
      "mixed": 2998,
      "PLAY": 2999,
      "rows": 3000,
      "stickers": 3001,
      "magn": 3002,
      "microphone": 3003,
      "To": 3004,
      "bent": 3005,
      "covers": 3006,
      "obser": 3007,
      "officers": 3008,
      "napkin": 3009,
      "name": 3010,
      "transport": 3011,
      "chil": 3012,
      "olives": 3013,
      "Motorc": 3014,
      "Col": 3015,
      "##ps": 3016,
      "##dling": 3017,
      "batting": 3018,
      "conf": 3019,
      "Stop": 3020,
      "SITTING": 3021,
      "##orter": 3022,
      "shiny": 3023,
      "##ental": 3024,
      "Traffic": 3025,
      "condim": 3026,
      "wing": 3027,
      "##ked": 3028,
      "Picture": 3029,
      "Snow": 3030,
      "##oming": 3031,
      "slopes": 3032,
      "gravel": 3033,
      "exhib": 3034,
      "far": 3035,
      "hers": 3036,
      "loung": 3037,
      "blowing": 3038,
      "skateboarders": 3039,
      "lab": 3040,
      "##ished": 3041,
      "##ute": 3042,
      "enjoy": 3043,
      "##ambur": 3044,
      "blonde": 3045,
      "Blue": 3046,
      "hills": 3047,
      "rainbow": 3048,
      "basketball": 3049,
      "##ging": 3050,
      "##eboard": 3051,
      "shadow": 3052,
      "bare": 3053,
      "photograp": 3054,
      "cookies": 3055,
      "figur": 3056,
      "Apple": 3057,
      "tun": 3058,
      "cargo": 3059,
      "##eeple": 3060,
      "opening": 3061,
      "liquid": 3062,
      "Pizz": 3063,
      "fountain": 3064,
      "lighting": 3065,
      "##ured": 3066,
      "cleaning": 3067,
      "##boy": 3068,
      "checking": 3069,
      "jar": 3070,
      "shru": 3071,
      "stud": 3072,
      "##wood": 3073,
      "bul": 3074,
      "THIS": 3075,
      "controls": 3076,
      "first": 3077,
      "These": 3078,
      "potato": 3079,
      "indic": 3080,
      "laughing": 3081,
      "focus": 3082,
      "spectators": 3083,
      "Ten": 3084,
      "ahead": 3085,
      "blow": 3086,
      "##ently": 3087,
      "snowboarders": 3088,
      "arch": 3089,
      "shape": 3090,
      "delicious": 3091,
      "turning": 3092,
      "cardboard": 3093,
      "London": 3094,
      "WH": 3095,
      "aud": 3096,
      "numer": 3097,
      "##ience": 3098,
      "steeple": 3099,
      "beef": 3100,
      "trav": 3101,
      "##rial": 3102,
      "desserts": 3103,
      "exten": 3104,
      "On": 3105,
      "hambur": 3106,
      "##UN": 3107,
      "great": 3108,
      "prin": 3109,
      "Green": 3110,
      "even": 3111,
      "frisbe": 3112,
      "thin": 3113,
      "golden": 3114,
      "##ited": 3115,
      "someones": 3116,
      "booth": 3117,
      "bookshelf": 3118,
      "da": 3119,
      "##iled": 3120,
      "catches": 3121,
      "proc": 3122,
      "foil": 3123,
      "condiments": 3124,
      "cr": 3125,
      "pige": 3126,
      "backs": 3127,
      "displays": 3128,
      "located": 3129,
      "advertisement": 3130,
      "muddy": 3131,
      "tools": 3132,
      "sle": 3133,
      "sad": 3134,
      "sug": 3135,
      "weather": 3136,
      "flooring": 3137,
      "saf": 3138,
      "workers": 3139,
      "entertain": 3140,
      "rusty": 3141,
      "crust": 3142,
      "clay": 3143,
      "newspaper": 3144,
      "fishing": 3145,
      "##icol": 3146,
      "plaid": 3147,
      "countertop": 3148,
      "trolley": 3149,
      "tabby": 3150,
      "herself": 3151,
      "travelling": 3152,
      "tire": 3153,
      "##ctive": 3154,
      "goat": 3155,
      "seats": 3156,
      "size": 3157,
      "He": 3158,
      "cust": 3159,
      "##ugg": 3160,
      "##erries": 3161,
      "##ront": 3162,
      "carts": 3163,
      "forward": 3164,
      "pickle": 3165,
      "miniature": 3166,
      "exhibit": 3167,
      "cran": 3168,
      "lar": 3169,
      "##iet": 3170,
      "##was": 3171,
      "alley": 3172,
      "##ustrial": 3173,
      "Giraffe": 3174,
      "depic": 3175,
      "Brown": 3176,
      "pin": 3177,
      "conn": 3178,
      "##ague": 3179,
      "spin": 3180,
      "cowboy": 3181,
      "mobile": 3182,
      "##olded": 3183,
      "bit": 3184,
      "lane": 3185,
      "unmade": 3186,
      "##spital": 3187,
      "##ockey": 3188,
      "rusted": 3189,
      "##ither": 3190,
      "##anta": 3191,
      "bunk": 3192,
      "##thy": 3193,
      "Pizza": 3194,
      "Be": 3195,
      "Ro": 3196,
      "Sh": 3197,
      "bri": 3198,
      "cro": 3199,
      "balc": 3200,
      "hallway": 3201,
      "TABLE": 3202,
      "brushes": 3203,
      "either": 3204,
      "rad": 3205,
      "##van": 3206,
      "story": 3207,
      "convers": 3208,
      "attire": 3209,
      "gloves": 3210,
      "collar": 3211,
      "thrown": 3212,
      "alm": 3213,
      "chees": 3214,
      "den": 3215,
      "##uzz": 3216,
      "rep": 3217,
      "##stem": 3218,
      "meadow": 3219,
      "accessor": 3220,
      "comforter": 3221,
      "Tennis": 3222,
      "##URE": 3223,
      "##eting": 3224,
      "grilled": 3225,
      "sec": 3226,
      "spray": 3227,
      "Skat": 3228,
      "##brary": 3229,
      "industrial": 3230,
      "system": 3231,
      "Food": 3232,
      "##de": 3233,
      "##ano": 3234,
      "sharing": 3235,
      "posed": 3236,
      "helping": 3237,
      "accessories": 3238,
      "calm": 3239,
      "stir": 3240,
      "stage": 3241,
      "dip": 3242,
      "cafe": 3243,
      "##icolored": 3244,
      "nic": 3245,
      "##erry": 3246,
      "##ables": 3247,
      "##cts": 3248,
      "scar": 3249,
      "stares": 3250,
      "following": 3251,
      "##washer": 3252,
      "biting": 3253,
      "ill": 3254,
      "##ew": 3255,
      "neigh": 3256,
      "driver": 3257,
      "seems": 3258,
      "Ban": 3259,
      "wings": 3260,
      "##look": 3261,
      "##lish": 3262,
      "##fully": 3263,
      "lif": 3264,
      "sleeps": 3265,
      "dishwasher": 3266,
      "magaz": 3267,
      "##tress": 3268,
      "##attered": 3269,
      "##ried": 3270,
      "words": 3271,
      "hospital": 3272,
      "cliff": 3273,
      "interior": 3274,
      "ceramic": 3275,
      "sugar": 3276,
      "connect": 3277,
      "odd": 3278,
      "sus": 3279,
      "chest": 3280,
      "countryside": 3281,
      "STAN": 3282,
      "designed": 3283,
      "chili": 3284,
      "Fl": 3285,
      "calf": 3286,
      "own": 3287,
      "##inese": 3288,
      "##ITE": 3289,
      "custom": 3290,
      "more": 3291,
      "##FF": 3292,
      "watering": 3293,
      "grapes": 3294,
      "teenag": 3295,
      "almost": 3296,
      "Skateboard": 3297,
      "##hood": 3298,
      "chasing": 3299,
      "series": 3300,
      "steak": 3301,
      "picking": 3302,
      "Zebra": 3303,
      "baking": 3304,
      "iron": 3305,
      "six": 3306,
      "##und": 3307,
      "stor": 3308,
      "taxi": 3309,
      "groc": 3310,
      "neighbor": 3311,
      "BL": 3312,
      "IT": 3313,
      "band": 3314,
      "dump": 3315,
      "##asting": 3316,
      "heading": 3317,
      "bagg": 3318,
      "hugging": 3319,
      "Train": 3320,
      "burger": 3321,
      "paws": 3322,
      "tasty": 3323,
      "jo": 3324,
      "##ushion": 3325,
      "balcony": 3326,
      ".\"": 3327,
      "BU": 3328,
      "CH": 3329,
      "WOM": 3330,
      "jumb": 3331,
      "##esting": 3332,
      "mans": 3333,
      "##ightly": 3334,
      "apron": 3335,
      "Motorcycle": 3336,
      "fil": 3337,
      "gaz": 3338,
      "library": 3339,
      "amongst": 3340,
      "Horses": 3341,
      "mostly": 3342,
      "Bath": 3343,
      "cushion": 3344,
      "jockey": 3345,
      "##men": 3346,
      "##ord": 3347,
      "coach": 3348,
      "horns": 3349,
      "##aste": 3350,
      "marina": 3351,
      "teams": 3352,
      "suspen": 3353,
      "fa": 3354,
      "nat": 3355,
      "##ral": 3356,
      "##work": 3357,
      "matching": 3358,
      "mattress": 3359,
      "bouquet": 3360,
      "multicolored": 3361,
      "nicely": 3362,
      "aerial": 3363,
      "warm": 3364,
      "##lit": 3365,
      "##oun": 3366,
      "##allic": 3367,
      "canop": 3368,
      "gentleman": 3369,
      "Yellow": 3370,
      "dig": 3371,
      "##zen": 3372,
      "##AD": 3373,
      "##AM": 3374,
      "##ility": 3375,
      "read": 3376,
      "cuts": 3377,
      "pancakes": 3378,
      "PLAYING": 3379,
      "larger": 3380,
      "Banan": 3381,
      "##ters": 3382,
      "##isting": 3383,
      "##stand": 3384,
      "##akery": 3385,
      "leaving": 3386,
      "sniffing": 3387,
      "straight": 3388,
      "pow": 3389,
      "vol": 3390,
      "##andoned": 3391,
      "ribb": 3392,
      "comb": 3393,
      "arrow": 3394,
      "funny": 3395,
      "tunnel": 3396,
      "neighborhood": 3397,
      "DO": 3398,
      "PIC": 3399,
      "order": 3400,
      "dryer": 3401,
      "mask": 3402,
      "cig": 3403,
      "prepare": 3404,
      "trunks": 3405,
      "owner": 3406,
      "Un": 3407,
      "bill": 3408,
      "Bathroom": 3409,
      "every": 3410,
      "##TURE": 3411,
      "strap": 3412,
      "##ownt": 3413,
      "fixt": 3414,
      "lemon": 3415,
      "heart": 3416,
      "metallic": 3417,
      "typing": 3418,
      "hose": 3419,
      "Closeup": 3420,
      "Elephants": 3421,
      "buffet": 3422,
      "cigar": 3423,
      "Car": 3424,
      "tin": 3425,
      "onlook": 3426,
      "chewing": 3427,
      "##ASS": 3428,
      "advertising": 3429,
      "hamburger": 3430,
      "baggage": 3431,
      "jumbo": 3432,
      "LOT": 3433,
      "pri": 3434,
      "##AIN": 3435,
      "##owers": 3436,
      "beg": 3437,
      "##quets": 3438,
      "railway": 3439,
      "attempt": 3440,
      "##IDE": 3441,
      "##owntown": 3442,
      "av": 3443,
      "dusk": 3444,
      "tries": 3445,
      "wit": 3446,
      "tractor": 3447,
      "works": 3448,
      "statues": 3449,
      "bakery": 3450,
      "dust": 3451,
      "sets": 3452,
      "##olf": 3453,
      "abandoned": 3454,
      "poster": 3455,
      "washing": 3456,
      "driveway": 3457,
      "organized": 3458,
      "natural": 3459,
      "Ve": 3460,
      "jers": 3461,
      "move": 3462,
      "thick": 3463,
      "##ption": 3464,
      "level": 3465,
      "resort": 3466,
      "formal": 3467,
      "motorbike": 3468,
      "winds": 3469,
      "freshly": 3470,
      "twin": 3471,
      "cases": 3472,
      "##gress": 3473,
      "##NT": 3474,
      "heavy": 3475,
      "cold": 3476,
      "Skiers": 3477,
      "circular": 3478,
      "audience": 3479,
      "connected": 3480,
      "jersey": 3481,
      "##aks": 3482,
      "strol": 3483,
      "shining": 3484,
      "foreign": 3485,
      "rails": 3486,
      "boots": 3487,
      "hung": 3488,
      "entertainment": 3489,
      "##ls": 3490,
      "bars": 3491,
      "candy": 3492,
      "devices": 3493,
      "dimly": 3494,
      "folded": 3495,
      "pony": 3496,
      "us": 3497,
      "rose": 3498,
      "lighthouse": 3499,
      "progress": 3500,
      "framed": 3501,
      "WOMAN": 3502,
      "PH": 3503,
      "downtown": 3504,
      "vend": 3505,
      "para": 3506,
      "grand": 3507,
      "##ival": 3508,
      "cupboards": 3509,
      "dot": 3510,
      "##ung": 3511,
      "helmets": 3512,
      "propped": 3513,
      "magnets": 3514,
      "Six": 3515,
      "emb": 3516,
      "mass": 3517,
      "pop": 3518,
      "##omen": 3519,
      "##irds": 3520,
      "rec": 3521,
      "dispen": 3522,
      "league": 3523,
      "Bro": 3524,
      "hiding": 3525,
      "obst": 3526,
      "turkey": 3527,
      "powder": 3528,
      "camp": 3529,
      "instru": 3530,
      "busses": 3531,
      "cupcake": 3532,
      "racquets": 3533,
      "serv": 3534,
      "produ": 3535,
      "tossing": 3536,
      "PICTURE": 3537,
      "Women": 3538,
      "nintendo": 3539,
      "##bble": 3540,
      "tablet": 3541,
      "backyard": 3542,
      "##ggles": 3543,
      "worker": 3544,
      "Color": 3545,
      "main": 3546,
      "ring": 3547,
      "##coming": 3548,
      "##alley": 3549,
      "upon": 3550,
      "amount": 3551,
      "sailboat": 3552,
      "quiet": 3553,
      "lounging": 3554,
      "fab": 3555,
      "##front": 3556,
      "##inds": 3557,
      "##ift": 3558,
      "reflected": 3559,
      "STANDING": 3560,
      "canopy": 3561,
      "obstac": 3562,
      "##vated": 3563,
      "##CK": 3564,
      "parrot": 3565,
      "flood": 3566,
      "desc": 3567,
      "contents": 3568,
      "unc": 3569,
      "sunlight": 3570,
      "bearded": 3571,
      "adorable": 3572,
      "raised": 3573,
      "porch": 3574,
      "##zy": 3575,
      "##lecting": 3576,
      "##ades": 3577,
      "##ama": 3578,
      "piano": 3579,
      "unus": 3580,
      "besides": 3581,
      "belt": 3582,
      "chopped": 3583,
      "illumin": 3584,
      "SH": 3585,
      "ears": 3586,
      "ram": 3587,
      "##oe": 3588,
      "##stri": 3589,
      "##vely": 3590,
      "wilder": 3591,
      "males": 3592,
      "castle": 3593,
      "scarf": 3594,
      "BAT": 3595,
      "Pol": 3596,
      "lang": 3597,
      "son": 3598,
      "##chair": 3599,
      "point": 3600,
      "licking": 3601,
      "toothp": 3602,
      "evening": 3603,
      "Hot": 3604,
      "Ind": 3605,
      "fans": 3606,
      "skiis": 3607,
      "motorcyclist": 3608,
      "##istic": 3609,
      "finger": 3610,
      "storage": 3611,
      "langu": 3612,
      "oper": 3613,
      "grazes": 3614,
      "##ments": 3615,
      "barrel": 3616,
      "silverware": 3617,
      "##boats": 3618,
      "hardwood": 3619,
      "seagulls": 3620,
      "WHITE": 3621,
      "NE": 3622,
      "el": 3623,
      "furry": 3624,
      "ge": 3625,
      "thumb": 3626,
      "scattered": 3627,
      "saying": 3628,
      "daytime": 3629,
      "grocery": 3630,
      "wilderness": 3631,
      "Assort": 3632,
      "father": 3633,
      "golf": 3634,
      "rel": 3635,
      "bund": 3636,
      "lear": 3637,
      "guard": 3638,
      "crosses": 3639,
      "Chinese": 3640,
      "squat": 3641,
      "present": 3642,
      "separate": 3643,
      "onlookers": 3644,
      "PAR": 3645,
      "WI": 3646,
      "##use": 3647,
      "stock": 3648,
      "##usting": 3649,
      "monkey": 3650,
      "lambs": 3651,
      "spinach": 3652,
      "fabric": 3653,
      "Cou": 3654,
      "bay": 3655,
      "mac": 3656,
      "##ending": 3657,
      "shaking": 3658,
      "prote": 3659,
      "word": 3660,
      "balancing": 3661,
      "Birds": 3662,
      "##sel": 3663,
      "bats": 3664,
      "circle": 3665,
      "stretching": 3666,
      "Do": 3667,
      "RO": 3668,
      "ple": 3669,
      "sla": 3670,
      "##ngle": 3671,
      "bikers": 3672,
      "cookie": 3673,
      "smoking": 3674,
      "mom": 3675,
      "##ka": 3676,
      "##mons": 3677,
      "##illa": 3678,
      "collage": 3679,
      "logs": 3680,
      "bikini": 3681,
      "peeking": 3682,
      "id": 3683,
      "##gy": 3684,
      "##my": 3685,
      "football": 3686,
      "comfort": 3687,
      "sizes": 3688,
      "fauc": 3689,
      "##ounge": 3690,
      "City": 3691,
      "gri": 3692,
      "link": 3693,
      "talk": 3694,
      "##aw": 3695,
      "##tor": 3696,
      "##SE": 3697,
      "##arp": 3698,
      "played": 3699,
      "##illing": 3700,
      "heal": 3701,
      "savan": 3702,
      "drawers": 3703,
      "jungle": 3704,
      "friend": 3705,
      "Colorful": 3706,
      "pump": 3707,
      "##mes": 3708,
      "asian": 3709,
      "goggles": 3710,
      "prot": 3711,
      "leafy": 3712,
      "suspended": 3713,
      "Sc": 3714,
      "##af": 3715,
      "##LO": 3716,
      "##xed": 3717,
      "lemons": 3718,
      "unique": 3719,
      "screens": 3720,
      "warning": 3721,
      "awa": 3722,
      "music": 3723,
      "moped": 3724,
      "volley": 3725,
      "##selves": 3726,
      "##hou": 3727,
      "##where": 3728,
      "##uddle": 3729,
      "ladder": 3730,
      "delivery": 3731,
      "safety": 3732,
      "Fre": 3733,
      "mel": 3734,
      "parach": 3735,
      "themselves": 3736,
      "decoration": 3737,
      "terra": 3738,
      "indoors": 3739,
      "Kitchen": 3740,
      "magazine": 3741,
      "cigarette": 3742,
      "Bus": 3743,
      "Par": 3744,
      "##unk": 3745,
      "pean": 3746,
      "peeled": 3747,
      "simple": 3748,
      "furnished": 3749,
      "WII": 3750,
      "wash": 3751,
      "need": 3752,
      "fixing": 3753,
      "shut": 3754,
      "##anda": 3755,
      "sne": 3756,
      "##ipped": 3757,
      "pickles": 3758,
      "##ooters": 3759,
      "chefs": 3760,
      "ribbon": 3761,
      "Di": 3762,
      "cere": 3763,
      "fair": 3764,
      "fighting": 3765,
      "nuts": 3766,
      "##pass": 3767,
      "##rib": 3768,
      "rece": 3769,
      "##uffed": 3770,
      "frisbees": 3771,
      "savanna": 3772,
      "De": 3773,
      "bra": 3774,
      "than": 3775,
      "skin": 3776,
      "plan": 3777,
      "##ught": 3778,
      "Skateboarder": 3779,
      "Eng": 3780,
      "GR": 3781,
      "really": 3782,
      "surfs": 3783,
      "courtyard": 3784,
      "freight": 3785,
      "##ASE": 3786,
      "figure": 3787,
      "complete": 3788,
      "muffin": 3789,
      "storm": 3790,
      "##reline": 3791,
      "cellphones": 3792,
      "towering": 3793,
      "crane": 3794,
      "Co": 3795,
      "cher": 3796,
      "fest": 3797,
      "lounge": 3798,
      "##owed": 3799,
      "lean": 3800,
      "##ument": 3801,
      "goal": 3802,
      "shoreline": 3803,
      "classroom": 3804,
      "bin": 3805,
      "##iving": 3806,
      "##KE": 3807,
      "##orting": 3808,
      "##ilt": 3809,
      "closet": 3810,
      "headed": 3811,
      "load": 3812,
      "photographs": 3813,
      "consisting": 3814,
      "should": 3815,
      "balloons": 3816,
      "cereal": 3817,
      "COU": 3818,
      "HOL": 3819,
      "fat": 3820,
      "##att": 3821,
      "scooters": 3822,
      "stops": 3823,
      "vegetation": 3824,
      "barri": 3825,
      "sticker": 3826,
      "trim": 3827,
      "##bbing": 3828,
      "Broccoli": 3829,
      "WAT": 3830,
      "ut": 3831,
      "wear": 3832,
      "soap": 3833,
      "haul": 3834,
      "Boats": 3835,
      "obstacle": 3836,
      "cone": 3837,
      "hip": 3838,
      "tus": 3839,
      "##ok": 3840,
      "##hol": 3841,
      "kitty": 3842,
      "buns": 3843,
      "pairs": 3844,
      "canoe": 3845,
      "shops": 3846,
      "points": 3847,
      "beverages": 3848,
      "process": 3849,
      "Bananas": 3850,
      "tusks": 3851,
      "inf": 3852,
      "inst": 3853,
      "comes": 3854,
      "speakers": 3855,
      "foggy": 3856,
      "##een": 3857,
      "##LL": 3858,
      "##rat": 3859,
      "##xes": 3860,
      "slightly": 3861,
      "clust": 3862,
      "doub": 3863,
      "project": 3864,
      "##plane": 3865,
      "direct": 3866,
      "designs": 3867,
      "DOG": 3868,
      "Ph": 3869,
      "##lines": 3870,
      "##ti": 3871,
      "##cker": 3872,
      "##anger": 3873,
      "rustic": 3874,
      "##wards": 3875,
      "softball": 3876,
      "healthy": 3877,
      "SM": 3878,
      "puts": 3879,
      "##gie": 3880,
      "arena": 3881,
      "##rimp": 3882,
      "##riental": 3883,
      "grin": 3884,
      "##ifl": 3885,
      "positioned": 3886,
      "Santa": 3887,
      "berries": 3888,
      "##dled": 3889,
      "ath": 3890,
      "reg": 3891,
      "##oney": 3892,
      "bedsp": 3893,
      "spac": 3894,
      "skyline": 3895,
      "lob": 3896,
      "meeting": 3897,
      "##ANT": 3898,
      "noteb": 3899,
      "pedestal": 3900,
      "BOARD": 3901,
      "PERS": 3902,
      "##ze": 3903,
      "##za": 3904,
      "these": 3905,
      "bathing": 3906,
      "wading": 3907,
      "arri": 3908,
      "knit": 3909,
      "slicing": 3910,
      "approaches": 3911,
      "observing": 3912,
      "fixtures": 3913,
      "dispenser": 3914,
      "toothpaste": 3915,
      "Lu": 3916,
      "act": 3917,
      "fed": 3918,
      "strange": 3919,
      "##raying": 3920,
      "##illage": 3921,
      "##ulifl": 3922,
      "gran": 3923,
      "conve": 3924,
      "peace": 3925,
      "paddling": 3926,
      "PERSON": 3927,
      "mall": 3928,
      "valley": 3929,
      "##uro": 3930,
      "stem": 3931,
      "##oping": 3932,
      "beak": 3933,
      "sideways": 3934,
      "waterway": 3935,
      "grabbing": 3936,
      "crossed": 3937,
      "catchers": 3938,
      "material": 3939,
      "##AND": 3940,
      "##ROOM": 3941,
      "Can": 3942,
      "Don": 3943,
      "Kids": 3944,
      "Teddy": 3945,
      "village": 3946,
      "layer": 3947,
      "##uliflower": 3948,
      "FR": 3949,
      "Pair": 3950,
      "cans": 3951,
      "wand": 3952,
      "##icle": 3953,
      "reach": 3954,
      "reflecting": 3955,
      "remod": 3956,
      "##IGH": 3957,
      "charact": 3958,
      "leaping": 3959,
      "attempts": 3960,
      "faucet": 3961,
      "Fresh": 3962,
      "fry": 3963,
      "##oose": 3964,
      "##ebo": 3965,
      "shrimp": 3966,
      "That": 3967,
      "caught": 3968,
      "pigeons": 3969,
      "illuminated": 3970,
      "Different": 3971,
      "hi": 3972,
      "lis": 3973,
      "trough": 3974,
      "exc": 3975,
      "exam": 3976,
      "pens": 3977,
      "##ALKING": 3978,
      "HOLDING": 3979,
      "Af": 3980,
      "HIS": 3981,
      "tight": 3982,
      "##icop": 3983,
      "desks": 3984,
      "numbers": 3985,
      "##ucumb": 3986,
      "snacks": 3987,
      "Snowboard": 3988,
      "fol": 3989,
      "wre": 3990,
      "ware": 3991,
      "##gant": 3992,
      "any": 3993,
      "##alt": 3994,
      "waving": 3995,
      "##apple": 3996,
      "##unches": 3997,
      "themed": 3998,
      "goods": 3999,
      "Plate": 4000,
      "##OOD": 4001,
      "conversation": 4002,
      "repair": 4003,
      "vendor": 4004,
      "BATH": 4005,
      "bedspread": 4006,
      "cucumb": 4007,
      "det": 4008,
      "##right": 4009,
      "##ined": 4010,
      "ins": 4011,
      "str": 4012,
      "leads": 4013,
      "helicop": 4014,
      "patterned": 4015,
      "slee": 4016,
      "service": 4017,
      "GIR": 4018,
      "kay": 4019,
      "##ider": 4020,
      "forks": 4021,
      "herding": 4022,
      "raft": 4023,
      "knives": 4024,
      "##toon": 4025,
      "cauliflower": 4026,
      "button": 4027,
      "granite": 4028,
      "##urope": 4029,
      "kis": 4030,
      "panda": 4031,
      "##erence": 4032,
      "plaza": 4033,
      "slow": 4034,
      "##aging": 4035,
      "fully": 4036,
      "##ode": 4037,
      "Comm": 4038,
      "flooded": 4039,
      "Couple": 4040,
      "trop": 4041,
      "##ruck": 4042,
      "cobble": 4043,
      "peel": 4044,
      "drawing": 4045,
      "##OTO": 4046,
      "tags": 4047,
      "terrain": 4048,
      "French": 4049,
      "Sign": 4050,
      "had": 4051,
      "##acks": 4052,
      "dried": 4053,
      "boogie": 4054,
      "much": 4055,
      "##ACH": 4056,
      "second": 4057,
      "Pla": 4058,
      "drying": 4059,
      "##ret": 4060,
      "##ened": 4061,
      "##amond": 4062,
      "lighted": 4063,
      "swe": 4064,
      "##ific": 4065,
      "mark": 4066,
      "nightstand": 4067,
      "cheesy": 4068,
      "teenager": 4069,
      "Bu": 4070,
      "tasting": 4071,
      "##YING": 4072,
      "##VER": 4073,
      "within": 4074,
      "##rots": 4075,
      "basin": 4076,
      "heard": 4077,
      "deer": 4078,
      "married": 4079,
      "students": 4080,
      "strapped": 4081,
      "PHOTO": 4082,
      "peanut": 4083,
      "LOO": 4084,
      "Mo": 4085,
      "New": 4086,
      "Pro": 4087,
      "fact": 4088,
      "##ination": 4089,
      "##ities": 4090,
      "##labor": 4091,
      "sha": 4092,
      "greenery": 4093,
      "elegant": 4094,
      "overpass": 4095,
      "mov": 4096,
      "##icker": 4097,
      "##cloth": 4098,
      "spoons": 4099,
      "maj": 4100,
      "convey": 4101,
      "helicopter": 4102,
      "tropical": 4103,
      "Male": 4104,
      "ke": 4105,
      "##kins": 4106,
      "##cast": 4107,
      "roaming": 4108,
      "upright": 4109,
      "coast": 4110,
      "seas": 4111,
      "diamond": 4112,
      "##angular": 4113,
      "unf": 4114,
      "##pect": 4115,
      "quilt": 4116,
      "print": 4117,
      "classic": 4118,
      "owl": 4119,
      "pattern": 4120,
      "FI": 4121,
      "dan": 4122,
      "min": 4123,
      "##ooth": 4124,
      "tablecloth": 4125,
      "recor": 4126,
      "spraying": 4127,
      "keys": 4128,
      "bald": 4129,
      "costumes": 4130,
      "portra": 4131,
      "massive": 4132,
      "SN": 4133,
      "US": 4134,
      "bad": 4135,
      "drop": 4136,
      "pus": 4137,
      "##val": 4138,
      "atten": 4139,
      "poss": 4140,
      "splas": 4141,
      "interesting": 4142,
      "celebrating": 4143,
      "Surfer": 4144,
      "daugh": 4145,
      "language": 4146,
      "Sp": 4147,
      "tier": 4148,
      "##ales": 4149,
      "##dition": 4150,
      "##drop": 4151,
      "skater": 4152,
      "turns": 4153,
      "unusual": 4154,
      "hal": 4155,
      "handing": 4156,
      "##ERE": 4157,
      "site": 4158,
      "stance": 4159,
      "roast": 4160,
      "limb": 4161,
      "stopping": 4162,
      "dec": 4163,
      "cellular": 4164,
      "Stuffed": 4165,
      "gives": 4166,
      "garnis": 4167,
      "wrapper": 4168,
      "freeway": 4169,
      "##IGN": 4170,
      "transportation": 4171,
      "doubles": 4172,
      "Pass": 4173,
      "may": 4174,
      "##vest": 4175,
      "##met": 4176,
      "##oored": 4177,
      "##ably": 4178,
      "recl": 4179,
      "motorcyclists": 4180,
      "##apan": 4181,
      "text": 4182,
      "canal": 4183,
      "polka": 4184,
      "sailboats": 4185,
      "figurine": 4186,
      "factory": 4187,
      "tape": 4188,
      "will": 4189,
      "buggy": 4190,
      "tents": 4191,
      "airbor": 4192,
      "##ills": 4193,
      "unlo": 4194,
      "knee": 4195,
      "drawer": 4196,
      "adjusting": 4197,
      "windsurf": 4198,
      "Le": 4199,
      "come": 4200,
      "hooked": 4201,
      "wi": 4202,
      "bagel": 4203,
      "console": 4204,
      "conference": 4205,
      "grinding": 4206,
      "Europe": 4207,
      "crib": 4208,
      "##ILE": 4209,
      "thing": 4210,
      "cartoon": 4211,
      "rect": 4212,
      "##sticks": 4213,
      "backdrop": 4214,
      "compan": 4215,
      "boarders": 4216,
      "remo": 4217,
      "curve": 4218,
      "posts": 4219,
      "winding": 4220,
      "ornam": 4221,
      "indicating": 4222,
      "BUS": 4223,
      "notebook": 4224,
      "cel": 4225,
      "tiss": 4226,
      "##AP": 4227,
      "weird": 4228,
      "split": 4229,
      "silhou": 4230,
      "depot": 4231,
      "##cohol": 4232,
      "photographer": 4233,
      "thumbs": 4234,
      "learning": 4235,
      "CAT": 4236,
      "wake": 4237,
      "##rome": 4238,
      "clos": 4239,
      "blu": 4240,
      "blur": 4241,
      "elevated": 4242,
      "alcohol": 4243,
      "hangar": 4244,
      "cleaned": 4245,
      "speaking": 4246,
      "pineapple": 4247,
      "human": 4248,
      "extended": 4249,
      "ident": 4250,
      "Afric": 4251,
      "BATHROOM": 4252,
      "Passeng": 4253,
      "cree": 4254,
      "eag": 4255,
      "tap": 4256,
      "##vi": 4257,
      "##tie": 4258,
      "##dles": 4259,
      "##bag": 4260,
      "shades": 4261,
      "compartment": 4262,
      "include": 4263,
      "mashed": 4264,
      "autom": 4265,
      "brief": 4266,
      "Photo": 4267,
      "GRO": 4268,
      "Her": 4269,
      "##ky": 4270,
      "##ico": 4271,
      "float": 4272,
      "flav": 4273,
      "butt": 4274,
      "oppon": 4275,
      "Plates": 4276,
      "products": 4277,
      "parachute": 4278,
      "utility": 4279,
      "kissing": 4280,
      "SNOW": 4281,
      "airborne": 4282,
      "Fruit": 4283,
      "Long": 4284,
      "Lots": 4285,
      "TOP": 4286,
      "WALKING": 4287,
      "bor": 4288,
      "now": 4289,
      "naked": 4290,
      "wicker": 4291,
      "##ose": 4292,
      "dest": 4293,
      "imp": 4294,
      "monument": 4295,
      "rowing": 4296,
      "windowsill": 4297,
      "pathway": 4298,
      "individuals": 4299,
      "numerous": 4300,
      "kept": 4301,
      "portrait": 4302,
      "bis": 4303,
      "##urning": 4304,
      "##vering": 4305,
      "histor": 4306,
      "headboard": 4307,
      "prov": 4308,
      "##INK": 4309,
      "sails": 4310,
      "signals": 4311,
      "squatting": 4312,
      "listen": 4313,
      "TEN": 4314,
      "frying": 4315,
      "##UP": 4316,
      "##itish": 4317,
      "##ops": 4318,
      "snugg": 4319,
      "carry": 4320,
      "##stone": 4321,
      "overcast": 4322,
      "drivers": 4323,
      "babies": 4324,
      "jackets": 4325,
      "##ATING": 4326,
      "amid": 4327,
      "##ails": 4328,
      "circus": 4329,
      "stroller": 4330,
      "hauling": 4331,
      "daughter": 4332,
      "##ditional": 4333,
      "Al": 4334,
      "La": 4335,
      "Orange": 4336,
      "SOM": 4337,
      "waff": 4338,
      "##ixt": 4339,
      "##mit": 4340,
      "##hedr": 4341,
      "##idy": 4342,
      "blood": 4343,
      "worn": 4344,
      "message": 4345,
      "practice": 4346,
      "photographed": 4347,
      "##UND": 4348,
      "begin": 4349,
      "Dou": 4350,
      "Slic": 4351,
      "jars": 4352,
      "ris": 4353,
      "##uits": 4354,
      "christmas": 4355,
      "##andel": 4356,
      "carous": 4357,
      "such": 4358,
      "lie": 4359,
      "##ational": 4360,
      "chained": 4361,
      "festival": 4362,
      "##hedral": 4363,
      "Lady": 4364,
      "Park": 4365,
      "grown": 4366,
      "##den": 4367,
      "##rew": 4368,
      "third": 4369,
      "asph": 4370,
      "##shirt": 4371,
      "cloud": 4372,
      "Skier": 4373,
      "appear": 4374,
      "Adults": 4375,
      "soldiers": 4376,
      "SUR": 4377,
      "uncooked": 4378,
      "geese": 4379,
      "CAR": 4380,
      "COM": 4381,
      "elabor": 4382,
      "nur": 4383,
      "rot": 4384,
      "plains": 4385,
      "gravy": 4386,
      "Clock": 4387,
      "figurines": 4388,
      "depicting": 4389,
      "PARK": 4390,
      "ROOM": 4391,
      "Sand": 4392,
      "pug": 4393,
      "##obile": 4394,
      "##bing": 4395,
      "##HER": 4396,
      "stom": 4397,
      "stable": 4398,
      "##ised": 4399,
      "shines": 4400,
      "##ams": 4401,
      "piles": 4402,
      "seating": 4403,
      "backpacks": 4404,
      "knees": 4405,
      "SKATE": 4406,
      "digital": 4407,
      "carousel": 4408,
      "Che": 4409,
      "No": 4410,
      "PI": 4411,
      "ren": 4412,
      "##gers": 4413,
      "##atter": 4414,
      "sto": 4415,
      "placing": 4416,
      "deser": 4417,
      "disk": 4418,
      "towing": 4419,
      "intera": 4420,
      "##ests": 4421,
      "sau": 4422,
      "barbed": 4423,
      "army": 4424,
      "##ude": 4425,
      "roller": 4426,
      "package": 4427,
      "staircase": 4428,
      "toasted": 4429,
      "medium": 4430,
      "adorned": 4431,
      "TRAIN": 4432,
      "customers": 4433,
      "Police": 4434,
      "sneakers": 4435,
      "conveyor": 4436,
      "asphalt": 4437,
      "Living": 4438,
      "Wood": 4439,
      "oriental": 4440,
      "##ners": 4441,
      "##NIS": 4442,
      "##REE": 4443,
      "trip": 4444,
      "note": 4445,
      "tourists": 4446,
      "competing": 4447,
      "kettle": 4448,
      "printer": 4449,
      "Motorcycles": 4450,
      "billboard": 4451,
      "closely": 4452,
      "FL": 4453,
      "Japan": 4454,
      "cast": 4455,
      "cras": 4456,
      "##ula": 4457,
      "##ex": 4458,
      "##ately": 4459,
      "##ions": 4460,
      "grab": 4461,
      "skysc": 4462,
      "aged": 4463,
      "meats": 4464,
      "scenic": 4465,
      "returning": 4466,
      "crack": 4467,
      "##OWN": 4468,
      "PLATE": 4469,
      "youth": 4470,
      "Horse": 4471,
      "Comp": 4472,
      "GRASS": 4473,
      "stomach": 4474,
      "Open": 4475,
      "sid": 4476,
      "##ikes": 4477,
      "##osed": 4478,
      "##life": 4479,
      "##ta": 4480,
      "##PL": 4481,
      "##ells": 4482,
      "press": 4483,
      "keyboards": 4484,
      "marked": 4485,
      "planter": 4486,
      "stripes": 4487,
      "pears": 4488,
      "STOP": 4489,
      "BLACK": 4490,
      "directly": 4491,
      "lobby": 4492,
      "warehouse": 4493,
      "call": 4494,
      "foli": 4495,
      "hind": 4496,
      "pig": 4497,
      "ru": 4498,
      "##EE": 4499,
      "##CE": 4500,
      "anch": 4501,
      "rob": 4502,
      "##elly": 4503,
      "selection": 4504,
      "##gged": 4505,
      "stationary": 4506,
      "barbe": 4507,
      "rocking": 4508,
      "tube": 4509,
      "stalls": 4510,
      "farmers": 4511,
      "shrubs": 4512,
      "Road": 4513,
      "Flowers": 4514,
      "powdered": 4515,
      "savannah": 4516,
      "English": 4517,
      "##attoo": 4518,
      "Canad": 4519,
      "TENNIS": 4520,
      "Double": 4521,
      "Del": 4522,
      "SIGN": 4523,
      "UP": 4524,
      "were": 4525,
      "##ye": 4526,
      "##hand": 4527,
      "ones": 4528,
      "too": 4529,
      "bean": 4530,
      "places": 4531,
      "towers": 4532,
      "slide": 4533,
      "donkey": 4534,
      "racks": 4535,
      "strawberry": 4536,
      "British": 4537,
      "shuttle": 4538,
      "cluster": 4539,
      "blueb": 4540,
      "foliage": 4541,
      "At": 4542,
      "Fire": 4543,
      "puddle": 4544,
      "sol": 4545,
      "##yer": 4546,
      "##ws": 4547,
      "chrome": 4548,
      "cathedral": 4549,
      "##ains": 4550,
      "suite": 4551,
      "pocket": 4552,
      "roadside": 4553,
      "metro": 4554,
      "attract": 4555,
      "bookcase": 4556,
      "help": 4557,
      "trio": 4558,
      "entering": 4559,
      "extra": 4560,
      "cruise": 4561,
      "teenage": 4562,
      "barrier": 4563,
      "opponent": 4564,
      "names": 4565,
      "##ient": 4566,
      "##ively": 4567,
      "##view": 4568,
      "podi": 4569,
      "tex": 4570,
      "midair": 4571,
      "stretched": 4572,
      "crouching": 4573,
      "##strich": 4574,
      "WATER": 4575,
      "Luggage": 4576,
      "LOOKING": 4577,
      "Sandw": 4578,
      "deserted": 4579,
      "podium": 4580,
      "All": 4581,
      "Bab": 4582,
      "OUT": 4583,
      "Very": 4584,
      "##VING": 4585,
      "##ont": 4586,
      "##otic": 4587,
      "intently": 4588,
      "scrat": 4589,
      "dressing": 4590,
      "meas": 4591,
      "shapes": 4592,
      "special": 4593,
      "subur": 4594,
      "cubicle": 4595,
      "balances": 4596,
      "stools": 4597,
      "##ugged": 4598,
      "macar": 4599,
      "shoulders": 4600,
      "##ixture": 4601,
      "Cl": 4602,
      "KIT": 4603,
      "cud": 4604,
      "gy": 4605,
      "love": 4606,
      "tattoo": 4607,
      "##IM": 4608,
      "##ishes": 4609,
      "mane": 4610,
      "skil": 4611,
      "##ccup": 4612,
      "checks": 4613,
      "logo": 4614,
      "maroon": 4615,
      "stores": 4616,
      "paintings": 4617,
      "harness": 4618,
      "##ONE": 4619,
      "electrical": 4620,
      "soldier": 4621,
      "Veget": 4622,
      "listening": 4623,
      "Light": 4624,
      "ass": 4625,
      "mixture": 4626,
      "nest": 4627,
      "pay": 4628,
      "rings": 4629,
      "tee": 4630,
      "##uss": 4631,
      "##GET": 4632,
      "##rong": 4633,
      "necks": 4634,
      "frozen": 4635,
      "##amas": 4636,
      "diner": 4637,
      "chopsticks": 4638,
      "archite": 4639,
      "dusty": 4640,
      "leaned": 4641,
      "dash": 4642,
      "##gen": 4643,
      "groups": 4644,
      "runner": 4645,
      "unit": 4646,
      "feeds": 4647,
      "commode": 4648,
      "partly": 4649,
      "enter": 4650,
      "stepping": 4651,
      "outfits": 4652,
      "wheelchair": 4653,
      "muffins": 4654,
      "crate": 4655,
      "Donuts": 4656,
      "texting": 4657,
      "AIR": 4658,
      "BASE": 4659,
      "dug": 4660,
      "lower": 4661,
      "map": 4662,
      "vac": 4663,
      "##father": 4664,
      "##NG": 4665,
      "##lain": 4666,
      "##rup": 4667,
      "care": 4668,
      "boardwalk": 4669,
      "##ummy": 4670,
      "envi": 4671,
      "curious": 4672,
      "##ronment": 4673,
      "when": 4674,
      "newly": 4675,
      "SKI": 4676,
      "rubbing": 4677,
      "parasol": 4678,
      "tuxed": 4679,
      "radio": 4680,
      "rectangular": 4681,
      "macaroni": 4682,
      "##cue": 4683,
      "##ern": 4684,
      "##ared": 4685,
      "##ashing": 4686,
      "##eter": 4687,
      "##cher": 4688,
      "##iday": 4689,
      "##cept": 4690,
      "sum": 4691,
      "floats": 4692,
      "divid": 4693,
      "apart": 4694,
      "loaf": 4695,
      "emer": 4696,
      "shots": 4697,
      "artistic": 4698,
      "fog": 4699,
      "tourist": 4700,
      "antel": 4701,
      "claim": 4702,
      "starting": 4703,
      "syrup": 4704,
      "spotted": 4705,
      "angle": 4706,
      "Snowboarder": 4707,
      "environment": 4708,
      "HOR": 4709,
      "LAR": 4710,
      "RED": 4711,
      "cooks": 4712,
      "gall": 4713,
      "gun": 4714,
      "ki": 4715,
      "ostrich": 4716,
      "sat": 4717,
      "tim": 4718,
      "yog": 4719,
      "##ailing": 4720,
      "chandel": 4721,
      "blinds": 4722,
      "hear": 4723,
      "spat": 4724,
      "array": 4725,
      "bicyclist": 4726,
      "serves": 4727,
      "##ERY": 4728,
      "peering": 4729,
      "paj": 4730,
      "touch": 4731,
      "stretches": 4732,
      "Boys": 4733,
      "caption": 4734,
      "dipping": 4735,
      "operating": 4736,
      "infant": 4737,
      "major": 4738,
      "SURF": 4739,
      "Out": 4740,
      "Pedest": 4741,
      "mes": 4742,
      "try": 4743,
      "tiger": 4744,
      "##ache": 4745,
      "##AGE": 4746,
      "##ino": 4747,
      "##orn": 4748,
      "##urt": 4749,
      "streetlight": 4750,
      "sharp": 4751,
      "walled": 4752,
      "lodge": 4753,
      "refrigerators": 4754,
      "figures": 4755,
      "speeding": 4756,
      "flipping": 4757,
      "crates": 4758,
      "excited": 4759,
      "African": 4760,
      "Baby": 4761,
      "ELE": 4762,
      "Female": 4763,
      "Here": 4764,
      "bamb": 4765,
      "ferry": 4766,
      "keep": 4767,
      "##yed": 4768,
      "##field": 4769,
      "inform": 4770,
      "needs": 4771,
      "thru": 4772,
      "##celain": 4773,
      "signage": 4774,
      "grassland": 4775,
      "younger": 4776,
      "policeman": 4777,
      "priv": 4778,
      "spacious": 4779,
      "cobblestone": 4780,
      "sweet": 4781,
      "tissue": 4782,
      "gym": 4783,
      "skillet": 4784,
      "LARGE": 4785,
      "Pedestri": 4786,
      "bamboo": 4787,
      "CLO": 4788,
      "done": 4789,
      "eas": 4790,
      "##aves": 4791,
      "##UR": 4792,
      "##inished": 4793,
      "start": 4794,
      "stump": 4795,
      "dozen": 4796,
      "pies": 4797,
      "firet": 4798,
      "hitter": 4799,
      "##acting": 4800,
      "quick": 4801,
      "extre": 4802,
      "sprinkled": 4803,
      "SUV": 4804,
      "shrubb": 4805,
      "grandfather": 4806,
      "else": 4807,
      "cherry": 4808,
      "remodeled": 4809,
      "Modern": 4810,
      "EATING": 4811,
      "roman": 4812,
      "tidy": 4813,
      "##fall": 4814,
      "##erman": 4815,
      "tort": 4816,
      "demon": 4817,
      "mountainous": 4818,
      "unri": 4819,
      "clearing": 4820,
      "curved": 4821,
      "engaged": 4822,
      "entree": 4823,
      "sofas": 4824,
      "dual": 4825,
      "artwork": 4826,
      "Airlines": 4827,
      "calico": 4828,
      "Bunches": 4829,
      "Batter": 4830,
      "DOWN": 4831,
      "Mar": 4832,
      "So": 4833,
      "fem": 4834,
      "##fts": 4835,
      "##res": 4836,
      "##icip": 4837,
      "plush": 4838,
      "somewhere": 4839,
      "super": 4840,
      "supp": 4841,
      "##umn": 4842,
      "##ourmet": 4843,
      "Smiling": 4844,
      "washer": 4845,
      "craft": 4846,
      "spots": 4847,
      "stunts": 4848,
      "##ILD": 4849,
      "European": 4850,
      "pajamas": 4851,
      "Bic": 4852,
      "jelly": 4853,
      "rab": 4854,
      "though": 4855,
      "ships": 4856,
      "menu": 4857,
      "potter": 4858,
      "memb": 4859,
      "carriages": 4860,
      "balance": 4861,
      "letter": 4862,
      "glowing": 4863,
      "furnishing": 4864,
      "awaiting": 4865,
      "skinny": 4866,
      "border": 4867,
      "shrubbery": 4868,
      "BED": 4869,
      "Em": 4870,
      "Older": 4871,
      "Sil": 4872,
      "##des": 4873,
      "##str": 4874,
      "alarm": 4875,
      "bigger": 4876,
      "barren": 4877,
      "capped": 4878,
      "tagged": 4879,
      "##IGHT": 4880,
      "movie": 4881,
      "identical": 4882,
      "elaborate": 4883,
      "For": 4884,
      "Hand": 4885,
      "LI": 4886,
      "dam": 4887,
      "junk": 4888,
      "pane": 4889,
      "##mar": 4890,
      "infl": 4891,
      "##rent": 4892,
      "##ends": 4893,
      "##ckets": 4894,
      "##utes": 4895,
      "##icap": 4896,
      "weeds": 4897,
      "bowling": 4898,
      "viewed": 4899,
      "sauc": 4900,
      "##venue": 4901,
      "biker": 4902,
      "appliance": 4903,
      "farmer": 4904,
      "Inside": 4905,
      "porcelain": 4906,
      "rubber": 4907,
      "fingers": 4908,
      "unfinished": 4909,
      "spatula": 4910,
      "RE": 4911,
      "SIDE": 4912,
      "fle": 4913,
      "gaming": 4914,
      "hut": 4915,
      "moored": 4916,
      "##suit": 4917,
      "##ilted": 4918,
      "real": 4919,
      "##shi": 4920,
      "raw": 4921,
      "treats": 4922,
      "banner": 4923,
      "cutter": 4924,
      "brid": 4925,
      "pitched": 4926,
      "notes": 4927,
      "wildlife": 4928,
      "##ibly": 4929,
      "BOY": 4930,
      "separated": 4931,
      "cooling": 4932,
      "Assorted": 4933,
      "dancing": 4934,
      "Gre": 4935,
      "Int": 4936,
      "pork": 4937,
      "tying": 4938,
      "##pris": 4939,
      "##pily": 4940,
      "##car": 4941,
      "##AIR": 4942,
      "##AFF": 4943,
      "##onal": 4944,
      "parts": 4945,
      "##cted": 4946,
      "treat": 4947,
      "swung": 4948,
      "tech": 4949,
      "bunny": 4950,
      "lining": 4951,
      "##ITY": 4952,
      "engines": 4953,
      "stripped": 4954,
      "Professional": 4955,
      "possibly": 4956,
      "suburban": 4957,
      "rabb": 4958,
      "file": 4959,
      "mail": 4960,
      "ox": 4961,
      "##pping": 4962,
      "##lt": 4963,
      "##BO": 4964,
      "##het": 4965,
      "tram": 4966,
      "handbag": 4967,
      "handicap": 4968,
      "penc": 4969,
      "faced": 4970,
      "equipped": 4971,
      "Apples": 4972,
      "lifting": 4973,
      "Herd": 4974,
      "maker": 4975,
      "##rit": 4976,
      "##ares": 4977,
      "traditional": 4978,
      "towed": 4979,
      "##shield": 4980,
      "opens": 4981,
      "teaching": 4982,
      "viewing": 4983,
      "locked": 4984,
      "##engu": 4985,
      "ovens": 4986,
      "stacks": 4987,
      "pads": 4988,
      "hoodie": 4989,
      "BEACH": 4990,
      "##uzzy": 4991,
      "athlet": 4992,
      "hiking": 4993,
      "celery": 4994,
      "buttons": 4995,
      "chandelier": 4996,
      "Crow": 4997,
      "caut": 4998,
      "mural": 4999,
      "rough": 5000,
      "##ah": 5001,
      "##PH": 5002,
      "##semb": 5003,
      "##rie": 5004,
      "lime": 5005,
      "bends": 5006,
      "lead": 5007,
      "wallp": 5008,
      "handles": 5009,
      "breaking": 5010,
      "mean": 5011,
      "forested": 5012,
      "necktie": 5013,
      "blocks": 5014,
      "happily": 5015,
      "express": 5016,
      "##ELL": 5017,
      "pigeon": 5018,
      "hipster": 5019,
      "SMALL": 5020,
      "Laptop": 5021,
      "CITY": 5022,
      "aff": 5023,
      "cot": 5024,
      "iced": 5025,
      "letting": 5026,
      "wool": 5027,
      "##iam": 5028,
      "##noon": 5029,
      "##toman": 5030,
      "##iner": 5031,
      "##inger": 5032,
      "tor": 5033,
      "whipped": 5034,
      "rim": 5035,
      "cock": 5036,
      "ottoman": 5037,
      "windshield": 5038,
      "scru": 5039,
      "##aggy": 5040,
      "garlic": 5041,
      "silly": 5042,
      "unloading": 5043,
      "bla": 5044,
      "bid": 5045,
      "fit": 5046,
      "jeep": 5047,
      "##ION": 5048,
      "##fo": 5049,
      "rode": 5050,
      "holiday": 5051,
      "outst": 5052,
      "grouped": 5053,
      "waterfall": 5054,
      "sushi": 5055,
      "horiz": 5056,
      "##imate": 5057,
      "clown": 5058,
      "ridding": 5059,
      "breast": 5060,
      "decked": 5061,
      "steer": 5062,
      "crest": 5063,
      "outfield": 5064,
      "interacting": 5065,
      "powered": 5066,
      "crouched": 5067,
      "plent": 5068,
      "windsurfing": 5069,
      "eagle": 5070,
      "Wooden": 5071,
      "crackers": 5072,
      "tuxedo": 5073,
      "furnishings": 5074,
      "Bow": 5075,
      "iP": 5076,
      "pengu": 5077,
      "##ucks": 5078,
      "##zens": 5079,
      "##law": 5080,
      "situ": 5081,
      "##andal": 5082,
      "playground": 5083,
      "horned": 5084,
      "def": 5085,
      "hanger": 5086,
      "##acent": 5087,
      "adm": 5088,
      "emp": 5089,
      "attent": 5090,
      "peas": 5091,
      "afternoon": 5092,
      "local": 5093,
      "stained": 5094,
      "##vention": 5095,
      "letters": 5096,
      "adjacent": 5097,
      "Indian": 5098,
      "blurred": 5099,
      "GROUP": 5100,
      "bisc": 5101,
      "attractive": 5102,
      "Sun": 5103,
      "##ually": 5104,
      "##au": 5105,
      "##ically": 5106,
      "upward": 5107,
      "##ulated": 5108,
      "coke": 5109,
      "poised": 5110,
      "alumin": 5111,
      "slides": 5112,
      "##appy": 5113,
      "scale": 5114,
      "##dless": 5115,
      "##ipe": 5116,
      "bicyclists": 5117,
      "pitchers": 5118,
      "##ocad": 5119,
      "##berries": 5120,
      "foam": 5121,
      "##ROUND": 5122,
      "gliding": 5123,
      "blocking": 5124,
      "bulls": 5125,
      "Kites": 5126,
      "tiered": 5127,
      "reno": 5128,
      "Computer": 5129,
      "yogurt": 5130,
      "goo": 5131,
      "hud": 5132,
      "pil": 5133,
      "##thing": 5134,
      "shaggy": 5135,
      "watched": 5136,
      "coats": 5137,
      "motel": 5138,
      "compact": 5139,
      "leave": 5140,
      "driven": 5141,
      "##leslaw": 5142,
      "preten": 5143,
      "theme": 5144,
      "camer": 5145,
      "##ANE": 5146,
      "stripe": 5147,
      "wheeled": 5148,
      "chickens": 5149,
      "Cattle": 5150,
      "followed": 5151,
      "##ivity": 5152,
      "called": 5153,
      "Surfers": 5154,
      "bullet": 5155,
      "CHILD": 5156,
      "inspe": 5157,
      "halves": 5158,
      "silhouette": 5159,
      "automobile": 5160,
      "Japanese": 5161,
      "outstret": 5162,
      "aluminum": 5163,
      "FOOD": 5164,
      "Gra": 5165,
      "VERY": 5166,
      "WIN": 5167,
      "gourmet": 5168,
      "money": 5169,
      "rap": 5170,
      "##osing": 5171,
      "##VE": 5172,
      "##UE": 5173,
      "##oped": 5174,
      "coleslaw": 5175,
      "##anging": 5176,
      "perches": 5177,
      "##eathers": 5178,
      "belong": 5179,
      "directing": 5180,
      "pointed": 5181,
      "competit": 5182,
      "strings": 5183,
      "provide": 5184,
      "firetruck": 5185,
      "BR": 5186,
      "RI": 5187,
      "feathers": 5188,
      "mem": 5189,
      "page": 5190,
      "##park": 5191,
      "##ai": 5192,
      "##ST": 5193,
      "##alks": 5194,
      "##ics": 5195,
      "carn": 5196,
      "surpris": 5197,
      "grasses": 5198,
      "poking": 5199,
      "spar": 5200,
      "diving": 5201,
      "guests": 5202,
      "setup": 5203,
      "##wear": 5204,
      "panel": 5205,
      "##izing": 5206,
      "flatbed": 5207,
      "cards": 5208,
      "mixing": 5209,
      "portion": 5210,
      "cubs": 5211,
      "##flowers": 5212,
      "adjust": 5213,
      "bricks": 5214,
      "avocad": 5215,
      "NEAR": 5216,
      "folding": 5217,
      "SOME": 5218,
      "Vegetables": 5219,
      "dugout": 5220,
      "unripe": 5221,
      "females": 5222,
      "outstretched": 5223,
      "SE": 5224,
      "cass": 5225,
      "pir": 5226,
      "sled": 5227,
      "##sa": 5228,
      "##gn": 5229,
      "##UM": 5230,
      "##atable": 5231,
      "##asp": 5232,
      "##ilar": 5233,
      "pipes": 5234,
      "skates": 5235,
      "toiletries": 5236,
      "asc": 5237,
      "assemb": 5238,
      "dinning": 5239,
      "pillar": 5240,
      "uniformed": 5241,
      "holes": 5242,
      "##nequ": 5243,
      "news": 5244,
      "visit": 5245,
      "sausages": 5246,
      "similar": 5247,
      "cycles": 5248,
      "humming": 5249,
      "saddle": 5250,
      "United": 5251,
      "Assortment": 5252,
      "relish": 5253,
      "stocked": 5254,
      "character": 5255,
      "company": 5256,
      "Pedestrians": 5257,
      "pottery": 5258,
      "Half": 5259,
      "Meat": 5260,
      "Table": 5261,
      "ed": 5262,
      "rol": 5263,
      "rout": 5264,
      "vandal": 5265,
      "##ien": 5266,
      "##off": 5267,
      "##ma": 5268,
      "##BR": 5269,
      "##PING": 5270,
      "##erior": 5271,
      "##alled": 5272,
      "##ote": 5273,
      "##ury": 5274,
      "champ": 5275,
      "bedding": 5276,
      "backwards": 5277,
      "shed": 5278,
      "heels": 5279,
      "Seven": 5280,
      "socks": 5281,
      "steering": 5282,
      "peeling": 5283,
      "flowered": 5284,
      "##ROW": 5285,
      "##avily": 5286,
      "falls": 5287,
      "dolls": 5288,
      "sweatshirt": 5289,
      "crouches": 5290,
      "protest": 5291,
      "wandering": 5292,
      "quickly": 5293,
      "plenty": 5294,
      "Ar": 5295,
      "Oran": 5296,
      "eight": 5297,
      "esc": 5298,
      "##post": 5299,
      "##yond": 5300,
      "beyond": 5301,
      "robe": 5302,
      "plugged": 5303,
      "herbs": 5304,
      "roads": 5305,
      "sprou": 5306,
      "hilly": 5307,
      "baref": 5308,
      "speaker": 5309,
      "##AME": 5310,
      "descri": 5311,
      "antelope": 5312,
      "Bicycle": 5313,
      "Empty": 5314,
      "inflatable": 5315,
      "Oranges": 5316,
      "VE": 5317,
      "nav": 5318,
      "oil": 5319,
      "pets": 5320,
      "tug": 5321,
      "vast": 5322,
      "##ca": 5323,
      "##AKE": 5324,
      "##ZZ": 5325,
      "##inn": 5326,
      "##ether": 5327,
      "mantle": 5328,
      "nearly": 5329,
      "##zzly": 5330,
      "skiier": 5331,
      "##agus": 5332,
      "contem": 5333,
      "distant": 5334,
      "location": 5335,
      "accents": 5336,
      "complet": 5337,
      "cooler": 5338,
      "parasailing": 5339,
      "bites": 5340,
      "Carrots": 5341,
      "cucumbers": 5342,
      "anchored": 5343,
      "measuring": 5344,
      "rabbit": 5345,
      "bidet": 5346,
      "situated": 5347,
      "19": 5348,
      "MOT": 5349,
      "Vintage": 5350,
      "York": 5351,
      "fut": 5352,
      "lon": 5353,
      "pou": 5354,
      "##pan": 5355,
      "##bee": 5356,
      "##ense": 5357,
      "##ica": 5358,
      "china": 5359,
      "##tled": 5360,
      "convention": 5361,
      "swan": 5362,
      "cord": 5363,
      "##olli": 5364,
      "ramps": 5365,
      "layered": 5366,
      "kneels": 5367,
      "retrie": 5368,
      "chopping": 5369,
      "consum": 5370,
      "raising": 5371,
      "##CHEN": 5372,
      "leaps": 5373,
      "embra": 5374,
      "slab": 5375,
      "comfortable": 5376,
      "melted": 5377,
      "##ILET": 5378,
      "KITCHEN": 5379,
      "caution": 5380,
      "BY": 5381,
      "HER": 5382,
      "YOU": 5383,
      "fuzzy": 5384,
      "nuzz": 5385,
      "overs": 5386,
      "##mel": 5387,
      "##BALL": 5388,
      "##ora": 5389,
      "mannequ": 5390,
      "##achers": 5391,
      "carved": 5392,
      "##mbol": 5393,
      "aspar": 5394,
      "##agne": 5395,
      "social": 5396,
      "unable": 5397,
      "corral": 5398,
      "current": 5399,
      "TOILET": 5400,
      "##ELD": 5401,
      "cops": 5402,
      "Bright": 5403,
      "teenagers": 5404,
      "sleek": 5405,
      "PIZZ": 5406,
      "interactive": 5407,
      "ELEPH": 5408,
      "rolled": 5409,
      "vandalized": 5410,
      "20": 5411,
      "Ave": 5412,
      "Avenue": 5413,
      "BALL": 5414,
      "ever": 5415,
      "rh": 5416,
      "##IE": 5417,
      "##SIDE": 5418,
      "##bird": 5419,
      "##EAR": 5420,
      "##PLE": 5421,
      "##arn": 5422,
      "##oms": 5423,
      "##elle": 5424,
      "threw": 5425,
      "##iced": 5426,
      "thats": 5427,
      "share": 5428,
      "smelling": 5429,
      "Animal": 5430,
      "lung": 5431,
      "world": 5432,
      "cabbage": 5433,
      "marsh": 5434,
      "helps": 5435,
      "styled": 5436,
      "discuss": 5437,
      "symbol": 5438,
      "liquor": 5439,
      "Parking": 5440,
      "demonstr": 5441,
      "ELEPHANT": 5442,
      "Con": 5443,
      "Gr": 5444,
      "rise": 5445,
      "sour": 5446,
      "und": 5447,
      "##mat": 5448,
      "##RT": 5449,
      "##ND": 5450,
      "##erole": 5451,
      "##lete": 5452,
      "##lap": 5453,
      "areas": 5454,
      "could": 5455,
      "smooth": 5456,
      "legged": 5457,
      "heavily": 5458,
      "midst": 5459,
      "storefront": 5460,
      "smiley": 5461,
      "portable": 5462,
      "smartphone": 5463,
      "finished": 5464,
      "Toilet": 5465,
      "kayak": 5466,
      "HORSE": 5467,
      "wallpaper": 5468,
      "PIZZA": 5469,
      "dru": 5470,
      "hom": 5471,
      "tro": 5472,
      "zone": 5473,
      "##con": 5474,
      "incoming": 5475,
      "##orary": 5476,
      "tending": 5477,
      "reve": 5478,
      "airfield": 5479,
      "bend": 5480,
      "soaked": 5481,
      "stew": 5482,
      "meals": 5483,
      "strike": 5484,
      "carrier": 5485,
      "appet": 5486,
      "mixer": 5487,
      "price": 5488,
      "knitted": 5489,
      "materials": 5490,
      "dashboard": 5491,
      "private": 5492,
      "sparse": 5493,
      "asparagus": 5494,
      "Am": 5495,
      "Washing": 5496,
      "cyclist": 5497,
      "dorm": 5498,
      "jam": 5499,
      "tether": 5500,
      "##band": 5501,
      "##lege": 5502,
      "stating": 5503,
      "##iring": 5504,
      "##ouris": 5505,
      "shake": 5506,
      "shaded": 5507,
      "sewing": 5508,
      "##aghet": 5509,
      "spre": 5510,
      "swans": 5511,
      "club": 5512,
      "Star": 5513,
      "posters": 5514,
      "amer": 5515,
      "exit": 5516,
      "squash": 5517,
      "takeoff": 5518,
      "boun": 5519,
      "motorbikes": 5520,
      "mopeds": 5521,
      "instruments": 5522,
      "protective": 5523,
      "Decker": 5524,
      "slowly": 5525,
      "pushed": 5526,
      "Passengers": 5527,
      "kiw": 5528,
      "information": 5529,
      "emplo": 5530,
      "champagne": 5531,
      "completely": 5532,
      "MOTOR": 5533,
      "DES": 5534,
      "FRO": 5535,
      "Ob": 5536,
      "Te": 5537,
      "Work": 5538,
      "cit": 5539,
      "filling": 5540,
      "hed": 5541,
      "pon": 5542,
      "rasp": 5543,
      "##YC": 5544,
      "##hat": 5545,
      "##UL": 5546,
      "whit": 5547,
      "wax": 5548,
      "biplane": 5549,
      "##ipping": 5550,
      "skatepark": 5551,
      "touches": 5552,
      "crumb": 5553,
      "tucked": 5554,
      "croiss": 5555,
      "bandan": 5556,
      "Vehic": 5557,
      "FIELD": 5558,
      "##gency": 5559,
      "BASEBALL": 5560,
      "##BOARD": 5561,
      "huddled": 5562,
      "casserole": 5563,
      "barefoot": 5564,
      "##aghetti": 5565,
      "Bear": 5566,
      "Cross": 5567,
      "GAME": 5568,
      "crown": 5569,
      "cages": 5570,
      "oval": 5571,
      "tul": 5572,
      "vi": 5573,
      "##vet": 5574,
      "##mper": 5575,
      "stare": 5576,
      "##ella": 5577,
      "##olly": 5578,
      "training": 5579,
      "studi": 5580,
      "cords": 5581,
      "mugs": 5582,
      "Airplane": 5583,
      "mustache": 5584,
      "sculptures": 5585,
      "BEAR": 5586,
      "labeled": 5587,
      "combination": 5588,
      "GIRAFF": 5589,
      "Signs": 5590,
      "creek": 5591,
      "taped": 5592,
      "maneu": 5593,
      "studio": 5594,
      "Bird": 5595,
      "##ester": 5596,
      "basil": 5597,
      "blind": 5598,
      "##lymp": 5599,
      "soaring": 5600,
      "perch": 5601,
      "##box": 5602,
      "accom": 5603,
      "parasail": 5604,
      "comfortably": 5605,
      "stems": 5606,
      "briefcase": 5607,
      "beginning": 5608,
      "Grey": 5609,
      "RIDING": 5610,
      "pirate": 5611,
      "YOUNG": 5612,
      "Washington": 5613,
      "German": 5614,
      "SINK": 5615,
      "Water": 5616,
      "ges": 5617,
      "rou": 5618,
      "##port": 5619,
      "##using": 5620,
      "##yl": 5621,
      "##ouf": 5622,
      "fields": 5623,
      "##ueen": 5624,
      "##sters": 5625,
      "grape": 5626,
      "spire": 5627,
      "spaghetti": 5628,
      "hydrants": 5629,
      "THREE": 5630,
      "dresses": 5631,
      "camouf": 5632,
      "##REEN": 5633,
      "perf": 5634,
      "canoes": 5635,
      "squir": 5636,
      "landed": 5637,
      "##dded": 5638,
      "##ocked": 5639,
      "napkins": 5640,
      "tires": 5641,
      "croche": 5642,
      "volleyball": 5643,
      "Buses": 5644,
      "shaving": 5645,
      "PARKED": 5646,
      "Sandwich": 5647,
      "scratching": 5648,
      "saucer": 5649,
      "surprised": 5650,
      "Bed": 5651,
      "BIR": 5652,
      "DI": 5653,
      "Mac": 5654,
      "amb": 5655,
      "bru": 5656,
      "caged": 5657,
      "oncoming": 5658,
      "##alo": 5659,
      "##aling": 5660,
      "##ased": 5661,
      "##igating": 5662,
      "paralle": 5663,
      "upper": 5664,
      "rele": 5665,
      "airline": 5666,
      "limit": 5667,
      "colorfully": 5668,
      "serious": 5669,
      "polo": 5670,
      "##planes": 5671,
      "clearly": 5672,
      "featured": 5673,
      "cabinetry": 5674,
      "stretch": 5675,
      "draped": 5676,
      "dragon": 5677,
      "medical": 5678,
      "numerals": 5679,
      "printed": 5680,
      "presentation": 5681,
      "installed": 5682,
      "sauces": 5683,
      "CLOCK": 5684,
      "FRONT": 5685,
      "gesture": 5686,
      "BEN": 5687,
      "Happy": 5688,
      "brow": 5689,
      "hour": 5690,
      "ran": 5691,
      "tusk": 5692,
      "ult": 5693,
      "vert": 5694,
      "##oise": 5695,
      "##can": 5696,
      "##ys": 5697,
      "##du": 5698,
      "##ders": 5699,
      "##RI": 5700,
      "##ener": 5701,
      "mote": 5702,
      "sex": 5703,
      "##angle": 5704,
      "mountainside": 5705,
      "broc": 5706,
      "camping": 5707,
      "cheesecake": 5708,
      "meatball": 5709,
      "nothing": 5710,
      "singing": 5711,
      "twig": 5712,
      "carpeted": 5713,
      "barrels": 5714,
      "grizzly": 5715,
      "Scissors": 5716,
      "members": 5717,
      "BB": 5718,
      "Elect": 5719,
      "Har": 5720,
      "Pink": 5721,
      "Rows": 5722,
      "ped": 5723,
      "santa": 5724,
      "yet": 5725,
      "yarn": 5726,
      "##vil": 5727,
      "##cases": 5728,
      "##fly": 5729,
      "##itch": 5730,
      "##omebo": 5731,
      "sporting": 5732,
      "##emet": 5733,
      "marking": 5734,
      "cloudless": 5735,
      "shelving": 5736,
      "flaming": 5737,
      "ends": 5738,
      "bleachers": 5739,
      "machines": 5740,
      "veggie": 5741,
      "chains": 5742,
      "relaxes": 5743,
      "celebration": 5744,
      "lifts": 5745,
      "waffles": 5746,
      "times": 5747,
      "Silver": 5748,
      "american": 5749,
      "parallel": 5750,
      "##omebody": 5751,
      "Ex": 5752,
      "FOR": 5753,
      "Spect": 5754,
      "cable": 5755,
      "fill": 5756,
      "ome": 5757,
      "##ney": 5758,
      "##TLE": 5759,
      "##CT": 5760,
      "inc": 5761,
      "skull": 5762,
      "watermel": 5763,
      "greeting": 5764,
      "picked": 5765,
      "appar": 5766,
      "quite": 5767,
      "cram": 5768,
      "makeup": 5769,
      "consists": 5770,
      "gazing": 5771,
      "begins": 5772,
      "barbecue": 5773,
      "blueberries": 5774,
      "summer": 5775,
      "##iamese": 5776,
      "route": 5777,
      "Ant": 5778,
      "DIS": 5779,
      "Fam": 5780,
      "Past": 5781,
      "Way": 5782,
      "ZE": 5783,
      "cyclists": 5784,
      "fer": 5785,
      "occup": 5786,
      "##mely": 5787,
      "instruction": 5788,
      "##ett": 5789,
      "##eties": 5790,
      "They": 5791,
      "wallet": 5792,
      "##aint": 5793,
      "##iece": 5794,
      "varieties": 5795,
      "darkened": 5796,
      "preparation": 5797,
      "opposing": 5798,
      "cerem": 5799,
      "musical": 5800,
      "BLUE": 5801,
      "bundle": 5802,
      "projector": 5803,
      "##ificial": 5804,
      "Delta": 5805,
      "penguin": 5806,
      "BENCH": 5807,
      "Spectators": 5808,
      "MEN": 5809,
      "Olymp": 5810,
      "aim": 5811,
      "aqu": 5812,
      "cemet": 5813,
      "dom": 5814,
      "got": 5815,
      "hun": 5816,
      "icy": 5817,
      "nes": 5818,
      "tanger": 5819,
      "##book": 5820,
      "##XT": 5821,
      "invest": 5822,
      "##redded": 5823,
      "##onder": 5824,
      "rod": 5825,
      "change": 5826,
      "##andom": 5827,
      "coin": 5828,
      "##atory": 5829,
      "crew": 5830,
      "paddles": 5831,
      "frames": 5832,
      "choppy": 5833,
      "relax": 5834,
      "exposed": 5835,
      "##ILDING": 5836,
      "Ital": 5837,
      "presents": 5838,
      "enjoys": 5839,
      "BUILDING": 5840,
      "arriving": 5841,
      "wrest": 5842,
      "emergency": 5843,
      "carnival": 5844,
      "DESK": 5845,
      "##YCLE": 5846,
      "tulips": 5847,
      "perfect": 5848,
      "ZEBR": 5849,
      "High": 5850,
      "Sou": 5851,
      "TA": 5852,
      "Tow": 5853,
      "WA": 5854,
      "hur": 5855,
      "lens": 5856,
      "mor": 5857,
      "pel": 5858,
      "sanding": 5859,
      "##green": 5860,
      "##UG": 5861,
      "##what": 5862,
      "##ashes": 5863,
      "strewn": 5864,
      "parent": 5865,
      "seven": 5866,
      "slip": 5867,
      "sco": 5868,
      "sword": 5869,
      "refer": 5870,
      "brand": 5871,
      "##graph": 5872,
      "##rict": 5873,
      "neckla": 5874,
      "##ixed": 5875,
      "glides": 5876,
      "Plane": 5877,
      "follows": 5878,
      "bookshelves": 5879,
      "buffalo": 5880,
      "extends": 5881,
      "countertops": 5882,
      "stirring": 5883,
      "camper": 5884,
      "rams": 5885,
      "regular": 5886,
      "characters": 5887,
      "Animals": 5888,
      "tethered": 5889,
      "BBQ": 5890,
      "BI": 5891,
      "Bar": 5892,
      "Dark": 5893,
      "MOU": 5894,
      "OVER": 5895,
      "Tall": 5896,
      "You": 5897,
      "deb": 5898,
      "filed": 5899,
      "hook": 5900,
      "kicks": 5901,
      "non": 5902,
      "pant": 5903,
      "tick": 5904,
      "telling": 5905,
      "tarp": 5906,
      "##itting": 5907,
      "somewhat": 5908,
      "trainer": 5909,
      "horn": 5910,
      "bron": 5911,
      "travelers": 5912,
      "curvy": 5913,
      "##inesses": 5914,
      "##lights": 5915,
      "burning": 5916,
      "doesn": 5917,
      "butterfly": 5918,
      "Girls": 5919,
      "taxis": 5920,
      "COURT": 5921,
      "season": 5922,
      "crashing": 5923,
      "damaged": 5924,
      "memor": 5925,
      "lonely": 5926,
      "Obama": 5927,
      "accompan": 5928,
      "Cla": 5929,
      "Home": 5930,
      "Tw": 5931,
      "bins": 5932,
      "give": 5933,
      "oct": 5934,
      "sight": 5935,
      "##ki": 5936,
      "##iqu": 5937,
      "##itan": 5938,
      "buckets": 5939,
      "fix": 5940,
      "bushel": 5941,
      "businesses": 5942,
      "skiiers": 5943,
      "gradu": 5944,
      "college": 5945,
      "##estri": 5946,
      "flowing": 5947,
      "##othered": 5948,
      "jumped": 5949,
      "decorating": 5950,
      "curly": 5951,
      "peers": 5952,
      "entry": 5953,
      "friz": 5954,
      "blend": 5955,
      "official": 5956,
      "wheeler": 5957,
      "##ONG": 5958,
      "Airplanes": 5959,
      "steamed": 5960,
      "balanced": 5961,
      "##ILING": 5962,
      "awning": 5963,
      "cucumber": 5964,
      "sided": 5965,
      "vacant": 5966,
      "extremely": 5967,
      "tortilla": 5968,
      "support": 5969,
      "rodeo": 5970,
      "cameras": 5971,
      "sprouts": 5972,
      "rounding": 5973,
      "Mon": 5974,
      "Mil": 5975,
      "OR": 5976,
      "PO": 5977,
      "gad": 5978,
      "honey": 5979,
      "ip": 5980,
      "mer": 5981,
      "rese": 5982,
      "random": 5983,
      "##uck": 5984,
      "##vation": 5985,
      "##LASS": 5986,
      "strong": 5987,
      "##chan": 5988,
      "##adows": 5989,
      "##amed": 5990,
      "cozy": 5991,
      "motorized": 5992,
      "moon": 5993,
      "nighttime": 5994,
      "carton": 5995,
      "##berry": 5996,
      "artificial": 5997,
      "turqu": 5998,
      "overlooks": 5999,
      "propellers": 6000,
      "vests": 6001,
      "medic": 6002,
      "sniffs": 6003,
      "finish": 6004,
      "LOTS": 6005,
      "dotted": 6006,
      "GIRL": 6007,
      "garnish": 6008,
      "BIRD": 6009,
      "brocolli": 6010,
      "omelet": 6011,
      "nestled": 6012,
      "AP": 6013,
      "best": 6014,
      "kiss": 6015,
      "miss": 6016,
      "tide": 6017,
      "##SS": 6018,
      "##MB": 6019,
      "##reds": 6020,
      "ton": 6021,
      "stones": 6022,
      "plaque": 6023,
      "##stal": 6024,
      "cola": 6025,
      "backhand": 6026,
      "limes": 6027,
      "deserts": 6028,
      "trek": 6029,
      "arched": 6030,
      "striking": 6031,
      "exiting": 6032,
      "peac": 6033,
      "submer": 6034,
      "##rapers": 6035,
      "##ropol": 6036,
      "accident": 6037,
      "department": 6038,
      "olive": 6039,
      "belly": 6040,
      "warming": 6041,
      "removed": 6042,
      "flavored": 6043,
      "historical": 6044,
      "Canadian": 6045,
      "architecture": 6046,
      "evergreen": 6047,
      "morning": 6048,
      "gadget": 6049,
      "turquoise": 6050,
      "Is": 6051,
      "Ste": 6052,
      "ic": 6053,
      "pal": 6054,
      "rather": 6055,
      "sells": 6056,
      "wig": 6057,
      "##zing": 6058,
      "##cot": 6059,
      "##dant": 6060,
      "##reme": 6061,
      "##raper": 6062,
      "##idated": 6063,
      "smothered": 6064,
      "flan": 6065,
      "##inder": 6066,
      "##airy": 6067,
      "lip": 6068,
      "windy": 6069,
      "graph": 6070,
      "grabs": 6071,
      "spices": 6072,
      "contra": 6073,
      "kiteboarding": 6074,
      "##ified": 6075,
      "prom": 6076,
      "paste": 6077,
      "microwaves": 6078,
      "directional": 6079,
      "##liners": 6080,
      "##OWER": 6081,
      "pours": 6082,
      "Commuter": 6083,
      "Sliced": 6084,
      "Slices": 6085,
      "COMP": 6086,
      "##eteria": 6087,
      "paneled": 6088,
      "attention": 6089,
      "##lapidated": 6090,
      "homes": 6091,
      "ambul": 6092,
      "watermelon": 6093,
      "resemb": 6094,
      "submerged": 6095,
      "10": 6096,
      "Art": 6097,
      "GREEN": 6098,
      "LAP": 6099,
      "SL": 6100,
      "less": 6101,
      "##hus": 6102,
      "##HING": 6103,
      "##wise": 6104,
      "##erm": 6105,
      "##rest": 6106,
      "stars": 6107,
      "##ister": 6108,
      "shredded": 6109,
      "underwear": 6110,
      "pregn": 6111,
      "know": 6112,
      "meet": 6113,
      "mechan": 6114,
      "polit": 6115,
      "haw": 6116,
      "Stat": 6117,
      "noses": 6118,
      "early": 6119,
      "TRACK": 6120,
      "lounges": 6121,
      "bulld": 6122,
      "depicts": 6123,
      "Beach": 6124,
      "everywhere": 6125,
      "athlete": 6126,
      "marker": 6127,
      "garnished": 6128,
      "nursing": 6129,
      "rotten": 6130,
      "cuddling": 6131,
      "Force": 6132,
      "avocado": 6133,
      "escal": 6134,
      "Antique": 6135,
      "referee": 6136,
      "Bre": 6137,
      "BACK": 6138,
      "Dis": 6139,
      "HAND": 6140,
      "IM": 6141,
      "Wor": 6142,
      "blaz": 6143,
      "cry": 6144,
      "dun": 6145,
      "pale": 6146,
      "san": 6147,
      "web": 6148,
      "##gly": 6149,
      "##athers": 6150,
      "skills": 6151,
      "##vered": 6152,
      "batters": 6153,
      "##pled": 6154,
      "blows": 6155,
      "##rispy": 6156,
      "##unching": 6157,
      "lux": 6158,
      "passed": 6159,
      "racer": 6160,
      "ridden": 6161,
      "particip": 6162,
      "facility": 6163,
      "compete": 6164,
      "clad": 6165,
      "speeds": 6166,
      "NEXT": 6167,
      "slaw": 6168,
      "historic": 6169,
      "rising": 6170,
      "skyscrapers": 6171,
      "mesh": 6172,
      "easy": 6173,
      "hummingbird": 6174,
      "##EARING": 6175,
      "raspberries": 6176,
      "##estern": 6177,
      "debris": 6178,
      "Cal": 6179,
      "Lone": 6180,
      "Pur": 6181,
      "Re": 6182,
      "Touris": 6183,
      "craw": 6184,
      "crop": 6185,
      "gated": 6186,
      "navy": 6187,
      "##cut": 6188,
      "##cul": 6189,
      "##feteria": 6190,
      "today": 6191,
      "stalk": 6192,
      "bumper": 6193,
      "trailing": 6194,
      "shoo": 6195,
      "mirrored": 6196,
      "metropol": 6197,
      "plated": 6198,
      "bricked": 6199,
      "liner": 6200,
      "boot": 6201,
      "milking": 6202,
      "cafeteria": 6203,
      "kittens": 6204,
      "##efully": 6205,
      "drain": 6206,
      "pupp": 6207,
      "angry": 6208,
      "indicates": 6209,
      "safari": 6210,
      "radi": 6211,
      "digging": 6212,
      "Commercial": 6213,
      "rises": 6214,
      "rugs": 6215,
      "belongings": 6216,
      "kiwi": 6217,
      "cemetery": 6218,
      "pregnant": 6219,
      "Tourists": 6220,
      "Coc": 6221,
      "Fri": 6222,
      "Mother": 6223,
      "Mex": 6224,
      "Numer": 6225,
      "SAND": 6226,
      "est": 6227,
      "found": 6228,
      "leng": 6229,
      "milling": 6230,
      "wines": 6231,
      "yach": 6232,
      "##pher": 6233,
      "##uting": 6234,
      "##brush": 6235,
      "##ingle": 6236,
      "##rofo": 6237,
      "##alog": 6238,
      "##alls": 6239,
      "buying": 6240,
      "parents": 6241,
      "shady": 6242,
      "picks": 6243,
      "carving": 6244,
      "busted": 6245,
      "##airs": 6246,
      "##apers": 6247,
      "hund": 6248,
      "lapse": 6249,
      "swims": 6250,
      "wrapping": 6251,
      "##ENT": 6252,
      "burnt": 6253,
      "crafts": 6254,
      "Airways": 6255,
      "wetsuits": 6256,
      "TOGET": 6257,
      "gentlemen": 6258,
      "everything": 6259,
      "pushes": 6260,
      "splash": 6261,
      "snuggling": 6262,
      "expression": 6263,
      "torn": 6264,
      "Graffiti": 6265,
      "camouflage": 6266,
      "DIFF": 6267,
      "Des": 6268,
      "Side": 6269,
      "Teen": 6270,
      "UMB": 6271,
      "dance": 6272,
      "hid": 6273,
      "late": 6274,
      "lion": 6275,
      "nut": 6276,
      "wok": 6277,
      "##uses": 6278,
      "##oke": 6279,
      "##cis": 6280,
      "##dated": 6281,
      "##AG": 6282,
      "##fruit": 6283,
      "##ready": 6284,
      "##rets": 6285,
      "beat": 6286,
      "##urity": 6287,
      "chalk": 6288,
      "force": 6289,
      "alert": 6290,
      "dilapidated": 6291,
      "guiding": 6292,
      "##arian": 6293,
      "knick": 6294,
      "knocked": 6295,
      "bagels": 6296,
      "paperwork": 6297,
      "linens": 6298,
      "shelter": 6299,
      "mouths": 6300,
      "ONE": 6301,
      "##rons": 6302,
      "wireless": 6303,
      "eyed": 6304,
      "equestri": 6305,
      "cracked": 6306,
      "cruis": 6307,
      "Blurry": 6308,
      "autumn": 6309,
      "student": 6310,
      "dais": 6311,
      "lifted": 6312,
      "splashing": 6313,
      "techn": 6314,
      "competitive": 6315,
      "embracing": 6316,
      "appetiz": 6317,
      "ultimate": 6318,
      "medicine": 6319,
      "Purple": 6320,
      "length": 6321,
      "TOGETHER": 6322,
      "UMBRE": 6323,
      "ALL": 6324,
      "JUM": 6325,
      "OP": 6326,
      "WEARING": 6327,
      "king": 6328,
      "ropes": 6329,
      "vending": 6330,
      "your": 6331,
      "##tra": 6332,
      "##LD": 6333,
      "##UCK": 6334,
      "##lets": 6335,
      "then": 6336,
      "##ilight": 6337,
      "beers": 6338,
      "tabletop": 6339,
      "##amon": 6340,
      "buss": 6341,
      "rooms": 6342,
      "##station": 6343,
      "already": 6344,
      "##rought": 6345,
      "lovely": 6346,
      "resid": 6347,
      "commun": 6348,
      "juic": 6349,
      "function": 6350,
      "##ICE": 6351,
      "blocked": 6352,
      "condition": 6353,
      "raises": 6354,
      "transporting": 6355,
      "processor": 6356,
      "gazelle": 6357,
      "washroom": 6358,
      "Play": 6359,
      "##ERENT": 6360,
      "amidst": 6361,
      "FLYING": 6362,
      "skyscraper": 6363,
      "pretending": 6364,
      "inspecting": 6365,
      "smoothie": 6366,
      "sexy": 6367,
      "Italian": 6368,
      "escalator": 6369,
      "##rofoam": 6370,
      "Cent": 6371,
      "CAKE": 6372,
      "Eight": 6373,
      "Frisbe": 6374,
      "GLASS": 6375,
      "War": 6376,
      "Wild": 6377,
      "dum": 6378,
      "gone": 6379,
      "goose": 6380,
      "lanes": 6381,
      "my": 6382,
      "##oid": 6383,
      "inv": 6384,
      "state": 6385,
      "##ilding": 6386,
      "##ilies": 6387,
      "##verted": 6388,
      "plow": 6389,
      "shadows": 6390,
      "chat": 6391,
      "seeds": 6392,
      "##tles": 6393,
      "intric": 6394,
      "sandals": 6395,
      "handed": 6396,
      "trey": 6397,
      "moss": 6398,
      "knacks": 6399,
      "decorate": 6400,
      "bottled": 6401,
      "deckered": 6402,
      "pillars": 6403,
      "policemen": 6404,
      "styl": 6405,
      "archway": 6406,
      "magazines": 6407,
      "job": 6408,
      "arrows": 6409,
      "cherries": 6410,
      "examining": 6411,
      "attending": 6412,
      "destination": 6413,
      "Soccer": 6414,
      "lettering": 6415,
      "LIVING": 6416,
      "athletic": 6417,
      "admiring": 6418,
      "describe": 6419,
      "Vehicles": 6420,
      "squirrel": 6421,
      "Family": 6422,
      "ambulance": 6423,
      "crystal": 6424,
      "metropolitan": 6425,
      "DIFFERENT": 6426,
      "Frisbees": 6427,
      "BAN": 6428,
      "Or": 6429,
      "dome": 6430,
      "frisb": 6431,
      "faded": 6432,
      "gener": 6433,
      "mill": 6434,
      "woo": 6435,
      "##nuts": 6436,
      "##come": 6437,
      "##gu": 6438,
      "##glasses": 6439,
      "##tage": 6440,
      "##fu": 6441,
      "##KS": 6442,
      "##eries": 6443,
      "stored": 6444,
      "##ict": 6445,
      "##anted": 6446,
      "grouping": 6447,
      "##mbled": 6448,
      "otherwise": 6449,
      "boxing": 6450,
      "remains": 6451,
      "patrol": 6452,
      "purch": 6453,
      "triple": 6454,
      "exotic": 6455,
      "incline": 6456,
      "hovering": 6457,
      "squares": 6458,
      "enthus": 6459,
      "cact": 6460,
      "##rushed": 6461,
      "retail": 6462,
      "holders": 6463,
      "bells": 6464,
      "captured": 6465,
      "SKY": 6466,
      "returns": 6467,
      "security": 6468,
      "jockeys": 6469,
      "bundled": 6470,
      "Dogs": 6471,
      "pumpkins": 6472,
      "Cola": 6473,
      "necklace": 6474,
      "bronze": 6475,
      "AROUND": 6476,
      "Cle": 6477,
      "Fed": 6478,
      "HAS": 6479,
      "Jet": 6480,
      "Sw": 6481,
      "Up": 6482,
      "WOOD": 6483,
      "ais": 6484,
      "gown": 6485,
      "gates": 6486,
      "rig": 6487,
      "sound": 6488,
      "tar": 6489,
      "tip": 6490,
      "wel": 6491,
      "##pical": 6492,
      "##bread": 6493,
      "##ould": 6494,
      "##idger": 6495,
      "neut": 6496,
      "docks": 6497,
      "grinds": 6498,
      "##ycling": 6499,
      "backed": 6500,
      "seed": 6501,
      "littered": 6502,
      "diag": 6503,
      "##ements": 6504,
      "daylight": 6505,
      "##urned": 6506,
      "walked": 6507,
      "##pective": 6508,
      "pita": 6509,
      "except": 6510,
      "hovers": 6511,
      "earth": 6512,
      "trashcan": 6513,
      "Trains": 6514,
      "napping": 6515,
      "condu": 6516,
      "calcul": 6517,
      "stoplights": 6518,
      "auto": 6519,
      "label": 6520,
      "CHAIR": 6521,
      "##strip": 6522,
      "Passenger": 6523,
      "waffle": 6524,
      "Crowd": 6525,
      "adjusts": 6526,
      "##innamon": 6527,
      "##NDER": 6528,
      "grapefruit": 6529,
      "accompanied": 6530,
      "octop": 6531,
      "Military": 6532,
      "UMBRELL": 6533,
      "Cup": 6534,
      "GO": 6535,
      "LIT": 6536,
      "Pan": 6537,
      "fist": 6538,
      "lite": 6539,
      "oak": 6540,
      "tilted": 6541,
      "unt": 6542,
      "wonder": 6543,
      "##porary": 6544,
      "##zard": 6545,
      "##kn": 6546,
      "##ker": 6547,
      "##gate": 6548,
      "##hich": 6549,
      "##food": 6550,
      "##itude": 6551,
      "##enting": 6552,
      "##omb": 6553,
      "flips": 6554,
      "basic": 6555,
      "airlines": 6556,
      "overg": 6557,
      "overt": 6558,
      "cong": 6559,
      "grain": 6560,
      "heater": 6561,
      "span": 6562,
      "teal": 6563,
      "contest": 6564,
      "sunsh": 6565,
      "caboose": 6566,
      "televisions": 6567,
      "barric": 6568,
      "barely": 6569,
      "orch": 6570,
      "hairy": 6571,
      "Chicken": 6572,
      "duff": 6573,
      "formally": 6574,
      "mascot": 6575,
      "twilight": 6576,
      "sectional": 6577,
      "Room": 6578,
      "Banana": 6579,
      "fixture": 6580,
      "goalie": 6581,
      "Player": 6582,
      "reclining": 6583,
      "Altered": 6584,
      "Canada": 6585,
      "SKIING": 6586,
      "horizon": 6587,
      "ascending": 6588,
      "visitors": 6589,
      "mannequin": 6590,
      "frizbee": 6591,
      "IMAGE": 6592,
      "puppies": 6593,
      "radiator": 6594,
      "Coca": 6595,
      "Friends": 6596,
      "Mc": 6597,
      "Pot": 6598,
      "cinnamon": 6599,
      "dots": 6600,
      "mama": 6601,
      "var": 6602,
      "##po": 6603,
      "##iver": 6604,
      "##iently": 6605,
      "##cient": 6606,
      "##ther": 6607,
      "##hold": 6608,
      "##bucks": 6609,
      "ann": 6610,
      "anim": 6611,
      "analog": 6612,
      "tofu": 6613,
      "##lable": 6614,
      "##opped": 6615,
      "##raut": 6616,
      "whis": 6617,
      "##olog": 6618,
      "##iche": 6619,
      "##ebe": 6620,
      "frog": 6621,
      "scra": 6622,
      "spark": 6623,
      "##akfast": 6624,
      "clip": 6625,
      "sandwhich": 6626,
      "biking": 6627,
      "##ormous": 6628,
      "enormous": 6629,
      "sunflowers": 6630,
      "amuse": 6631,
      "stairway": 6632,
      "access": 6633,
      "claw": 6634,
      "calves": 6635,
      "reflects": 6636,
      "extending": 6637,
      "Beautiful": 6638,
      "oddly": 6639,
      "Decor": 6640,
      "examines": 6641,
      "record": 6642,
      "roasted": 6643,
      "wiping": 6644,
      "Fruits": 6645,
      "##PLAY": 6646,
      "divided": 6647,
      "pencils": 6648,
      "WIND": 6649,
      "##cause": 6650,
      "tangerines": 6651,
      "Breakfast": 6652,
      "Mexican": 6653,
      "hidden": 6654,
      "JUMPING": 6655,
      "OPEN": 6656,
      "aisle": 6657,
      "AL": 6658,
      "Cow": 6659,
      "Gold": 6660,
      "Me": 6661,
      "Night": 6662,
      "cane": 6663,
      "dang": 6664,
      "jug": 6665,
      "named": 6666,
      "tired": 6667,
      "vent": 6668,
      "##cess": 6669,
      "##atic": 6670,
      "beached": 6671,
      "because": 6672,
      "flush": 6673,
      "waling": 6674,
      "kits": 6675,
      "airstrip": 6676,
      "waterfront": 6677,
      "surfboarding": 6678,
      "sear": 6679,
      "height": 6680,
      "##orth": 6681,
      "platters": 6682,
      "unp": 6683,
      "##issor": 6684,
      "typical": 6685,
      "hazy": 6686,
      "scenery": 6687,
      "candies": 6688,
      "Chocolate": 6689,
      "lamppost": 6690,
      "seem": 6691,
      "##dible": 6692,
      "packages": 6693,
      "washed": 6694,
      "burrit": 6695,
      "advertisements": 6696,
      "handleb": 6697,
      "radishes": 6698,
      "owners": 6699,
      "taxiing": 6700,
      "everyone": 6701,
      "avai": 6702,
      "Polar": 6703,
      "presented": 6704,
      "SMILING": 6705,
      "recliner": 6706,
      "robot": 6707,
      "##GETABLE": 6708,
      "galloping": 6709,
      "scrub": 6710,
      "pilot": 6711,
      "VEGETABLE": 6712,
      "citrus": 6713,
      "hedge": 6714,
      "GIRAFFE": 6715,
      "DISPLAY": 6716,
      "ceremony": 6717,
      "COMPUT": 6718,
      "equestrian": 6719,
      "enthusi": 6720,
      "##idgerator": 6721,
      "amusement": 6722,
      "And": 6723,
      "Back": 6724,
      "FLO": 6725,
      "OLD": 6726,
      "Pep": 6727,
      "Part": 6728,
      "dad": 6729,
      "eff": 6730,
      "hooks": 6731,
      "wo": 6732,
      "wrist": 6733,
      "would": 6734,
      "##uis": 6735,
      "##ivers": 6736,
      "##gin": 6737,
      "##hone": 6738,
      "##EP": 6739,
      "##inery": 6740,
      "##anse": 6741,
      "##arella": 6742,
      "##esame": 6743,
      "##ided": 6744,
      "##rous": 6745,
      "##ament": 6746,
      "laund": 6747,
      "snap": 6748,
      "licks": 6749,
      "dem": 6750,
      "spars": 6751,
      "patrons": 6752,
      "monster": 6753,
      "shell": 6754,
      "exer": 6755,
      "partial": 6756,
      "vanilla": 6757,
      "foal": 6758,
      "##ISB": 6759,
      "appearing": 6760,
      "seafood": 6761,
      "spinning": 6762,
      "readies": 6763,
      "PHONE": 6764,
      "pumpkin": 6765,
      "barriers": 6766,
      "FRISB": 6767,
      "markers": 6768,
      "shaved": 6769,
      "creepy": 6770,
      "futon": 6771,
      "bouncing": 6772,
      "Workers": 6773,
      "ranch": 6774,
      "cramped": 6775,
      "peacock": 6776,
      "hawk": 6777,
      "Numerous": 6778,
      "##pherd": 6779,
      "neutral": 6780,
      "available": 6781,
      "Cooked": 6782,
      "HIGH": 6783,
      "UNDER": 6784,
      "danger": 6785,
      "gn": 6786,
      "ginger": 6787,
      "mur": 6788,
      "vane": 6789,
      "##pine": 6790,
      "##oy": 6791,
      "##bably": 6792,
      "##UB": 6793,
      "##UFF": 6794,
      "##WAY": 6795,
      "ofa": 6796,
      "##ara": 6797,
      "tourn": 6798,
      "toned": 6799,
      "##ening": 6800,
      "stere": 6801,
      "##iddle": 6802,
      "thread": 6803,
      "##iles": 6804,
      "##ample": 6805,
      "chin": 6806,
      "flash": 6807,
      "basem": 6808,
      "##zzarella": 6809,
      "slop": 6810,
      "litter": 6811,
      "spir": 6812,
      "collect": 6813,
      "courts": 6814,
      "Seagull": 6815,
      "##icking": 6816,
      "##used": 6817,
      "workstation": 6818,
      "subst": 6819,
      "district": 6820,
      "burner": 6821,
      "burners": 6822,
      "##bbles": 6823,
      "##ACE": 6824,
      "##ucch": 6825,
      "positions": 6826,
      "peeks": 6827,
      "dragging": 6828,
      "climbs": 6829,
      "jew": 6830,
      "tanker": 6831,
      "expanse": 6832,
      "TRUCK": 6833,
      "captivity": 6834,
      "trolly": 6835,
      "sleigh": 6836,
      "conversing": 6837,
      "vendors": 6838,
      "recre": 6839,
      "instrument": 6840,
      "stormy": 6841,
      "recording": 6842,
      "removing": 6843,
      "##yees": 6844,
      "contemporary": 6845,
      "unders": 6846,
      "troph": 6847,
      "##ettes": 6848,
      "South": 6849,
      "World": 6850,
      "hundreds": 6851,
      "sparsely": 6852,
      "tournament": 6853,
      "Pres": 6854,
      "Rail": 6855,
      "Sl": 6856,
      "SC": 6857,
      "came": 6858,
      "gang": 6859,
      "huddle": 6860,
      "pers": 6861,
      "trot": 6862,
      "vess": 6863,
      "##fting": 6864,
      "##walks": 6865,
      "##50": 6866,
      "ancient": 6867,
      "stay": 6868,
      "##ram": 6869,
      "plung": 6870,
      "dozens": 6871,
      "shine": 6872,
      "personnel": 6873,
      "##antic": 6874,
      "upwards": 6875,
      "##rucks": 6876,
      "reins": 6877,
      "sidecar": 6878,
      "##eech": 6879,
      "##eeping": 6880,
      "windm": 6881,
      "scissor": 6882,
      "handled": 6883,
      "raquet": 6884,
      "florets": 6885,
      "colum": 6886,
      "##ested": 6887,
      "chews": 6888,
      "mozzarella": 6889,
      "marching": 6890,
      "ways": 6891,
      "peach": 6892,
      "Groups": 6893,
      "packaged": 6894,
      "##quee": 6895,
      "##ALK": 6896,
      "retro": 6897,
      "approach": 6898,
      "drapes": 6899,
      "hooded": 6900,
      "practices": 6901,
      "casual": 6902,
      "BOAT": 6903,
      "delivering": 6904,
      "##coat": 6905,
      "charging": 6906,
      "reflective": 6907,
      "finishing": 6908,
      "focused": 6909,
      "moment": 6910,
      "fedora": 6911,
      "FROM": 6912,
      "FIRE": 6913,
      "dropping": 6914,
      "import": 6915,
      "architect": 6916,
      "Bowl": 6917,
      "renovated": 6918,
      "Olympic": 6919,
      "hunched": 6920,
      "ipod": 6921,
      "octopus": 6922,
      "stereo": 6923,
      "##ucchini": 6924,
      "CD": 6925,
      "Cor": 6926,
      "Go": 6927,
      "LYING": 6928,
      "MIR": 6929,
      "SP": 6930,
      "Squ": 6931,
      "Wind": 6932,
      "YELL": 6933,
      "fine": 6934,
      "gift": 6935,
      "lat": 6936,
      "might": 6937,
      "mice": 6938,
      "tac": 6939,
      "vine": 6940,
      "waste": 6941,
      "##piece": 6942,
      "##ians": 6943,
      "##tower": 6944,
      "##hop": 6945,
      "inj": 6946,
      "##ene": 6947,
      "##omy": 6948,
      "##roud": 6949,
      "bug": 6950,
      "rip": 6951,
      "snowsuit": 6952,
      "sund": 6953,
      "##ctors": 6954,
      "congre": 6955,
      "cityscape": 6956,
      "speech": 6957,
      "flowery": 6958,
      "fencing": 6959,
      "bib": 6960,
      "views": 6961,
      "standard": 6962,
      "refridgerator": 6963,
      "forehead": 6964,
      "plantains": 6965,
      "raining": 6966,
      "salon": 6967,
      "peak": 6968,
      "hug": 6969,
      "engaging": 6970,
      "settings": 6971,
      "ANIM": 6972,
      "wired": 6973,
      "garb": 6974,
      "concert": 6975,
      "##structed": 6976,
      "businessman": 6977,
      "wheelie": 6978,
      "Variety": 6979,
      "complex": 6980,
      "strips": 6981,
      "sections": 6982,
      "Toy": 6983,
      "numeral": 6984,
      "populated": 6985,
      "languages": 6986,
      "spaces": 6987,
      "ornament": 6988,
      "destro": 6989,
      "pressing": 6990,
      "beanie": 6991,
      "solar": 6992,
      "handicapped": 6993,
      "biscuit": 6994,
      "currently": 6995,
      "ponies": 6996,
      "bandana": 6997,
      "markings": 6998,
      "ticket": 6999,
      "gadgets": 7000,
      "crawling": 7001,
      "cactus": 7002,
      "overgrown": 7003,
      "WINDOW": 7004,
      "baseman": 7005,
      "YELLOW": 7006,
      "Birthday": 7007,
      "Baked": 7008,
      "CO": 7009,
      "Im": 7010,
      "San": 7011,
      "TE": 7012,
      "Truck": 7013,
      "idle": 7014,
      "pud": 7015,
      "zucchini": 7016,
      "##pit": 7017,
      "##ih": 7018,
      "##ead": 7019,
      "##tate": 7020,
      "##ties": 7021,
      "##hift": 7022,
      "##US": 7023,
      "##rees": 7024,
      "##uters": 7025,
      "##arded": 7026,
      "buy": 7027,
      "bunt": 7028,
      "plum": 7029,
      "parrots": 7030,
      "##seat": 7031,
      "lav": 7032,
      "chan": 7033,
      "cole": 7034,
      "poor": 7035,
      "live": 7036,
      "##aneous": 7037,
      "waist": 7038,
      "altered": 7039,
      "underground": 7040,
      "##asty": 7041,
      "##estic": 7042,
      "vegetarian": 7043,
      "mosa": 7044,
      "guide": 7045,
      "stuffing": 7046,
      "add": 7047,
      "probably": 7048,
      "sunlit": 7049,
      "loft": 7050,
      "barb": 7051,
      "##gram": 7052,
      "haircut": 7053,
      "breads": 7054,
      "salmon": 7055,
      "pear": 7056,
      "hoop": 7057,
      "##autifully": 7058,
      "carried": 7059,
      "wildebe": 7060,
      "concent": 7061,
      "##ROR": 7062,
      "caps": 7063,
      "machinery": 7064,
      "PLANE": 7065,
      "warns": 7066,
      "grooming": 7067,
      "dense": 7068,
      "##ADY": 7069,
      "descending": 7070,
      "Door": 7071,
      "reception": 7072,
      "activ": 7073,
      "ornaments": 7074,
      "compartments": 7075,
      "Outside": 7076,
      "affixed": 7077,
      "##ROWN": 7078,
      "poured": 7079,
      "flamingos": 7080,
      "instructions": 7081,
      "ZEBRAS": 7082,
      "slippers": 7083,
      "trekking": 7084,
      "conductor": 7085,
      "sunshine": 7086,
      "laundry": 7087,
      "important": 7088,
      "ANIMAL": 7089,
      "COL": 7090,
      "DR": 7091,
      "Din": 7092,
      "Over": 7093,
      "et": 7094,
      "gull": 7095,
      "nature": 7096,
      "queen": 7097,
      "##ua": 7098,
      "##kers": 7099,
      "##nch": 7100,
      "##yal": 7101,
      "##fight": 7102,
      "##erk": 7103,
      "##rail": 7104,
      "##eline": 7105,
      "##ictor": 7106,
      "buried": 7107,
      "##urger": 7108,
      "ripen": 7109,
      "##zzle": 7110,
      "foraging": 7111,
      "cocon": 7112,
      "livest": 7113,
      "##lders": 7114,
      "teap": 7115,
      "banquet": 7116,
      "clut": 7117,
      "showroom": 7118,
      "goble": 7119,
      "herded": 7120,
      "patiently": 7121,
      "shells": 7122,
      "marketplace": 7123,
      "trails": 7124,
      "##scap": 7125,
      "struct": 7126,
      "master": 7127,
      "glow": 7128,
      "utensil": 7129,
      "noodle": 7130,
      "##CHING": 7131,
      "tossed": 7132,
      "film": 7133,
      "levels": 7134,
      "awaits": 7135,
      "pencil": 7136,
      "consumption": 7137,
      "TAKING": 7138,
      "SLOP": 7139,
      "bulldog": 7140,
      "daisies": 7141,
      "residence": 7142,
      "calculator": 7143,
      "MIRROR": 7144,
      "mosaic": 7145,
      "concentr": 7146,
      "livestock": 7147,
      "11": 7148,
      "BOW": 7149,
      "BIG": 7150,
      "COW": 7151,
      "Hallow": 7152,
      "ME": 7153,
      "Public": 7154,
      "Row": 7155,
      "Somebody": 7156,
      "Single": 7157,
      "barge": 7158,
      "berry": 7159,
      "jud": 7160,
      "nasty": 7161,
      "sell": 7162,
      "sesame": 7163,
      "ugly": 7164,
      "vans": 7165,
      "##vd": 7166,
      "##ailed": 7167,
      "##VD": 7168,
      "tot": 7169,
      "roam": 7170,
      "downward": 7171,
      "carefully": 7172,
      "##ston": 7173,
      "pokes": 7174,
      "elev": 7175,
      "slanted": 7176,
      "##agie": 7177,
      "diaper": 7178,
      "broth": 7179,
      "proper": 7180,
      "linen": 7181,
      "flowering": 7182,
      "INSIDE": 7183,
      "spec": 7184,
      "spewing": 7185,
      "packing": 7186,
      "wedge": 7187,
      "bloss": 7188,
      "blooming": 7189,
      "crab": 7190,
      "cloths": 7191,
      "makeshift": 7192,
      "tails": 7193,
      "hammer": 7194,
      "grove": 7195,
      "depicted": 7196,
      "filthy": 7197,
      "cushions": 7198,
      "Dozens": 7199,
      "needle": 7200,
      "trimmed": 7201,
      "peacefully": 7202,
      "##market": 7203,
      "fleet": 7204,
      "bridle": 7205,
      "biscuits": 7206,
      "croissant": 7207,
      "vertical": 7208,
      "BIKE": 7209,
      "##trak": 7210,
      "FLOOR": 7211,
      "substance": 7212,
      "Halloween": 7213,
      "BROWN": 7214,
      "Dough": 7215,
      "HOT": 7216,
      "Pit": 7217,
      "SW": 7218,
      "Sail": 7219,
      "Umbrel": 7220,
      "cables": 7221,
      "dairy": 7222,
      "fis": 7223,
      "gor": 7224,
      "yummy": 7225,
      "##si": 7226,
      "##tail": 7227,
      "##fy": 7228,
      "##inary": 7229,
      "##inging": 7230,
      "theater": 7231,
      "tone": 7232,
      "##omas": 7233,
      "##riotic": 7234,
      "snowing": 7235,
      "##ented": 7236,
      "##boards": 7237,
      "##ieces": 7238,
      "fences": 7239,
      "goers": 7240,
      "chee": 7241,
      "enough": 7242,
      "added": 7243,
      "proce": 7244,
      "camel": 7245,
      "highchair": 7246,
      "attach": 7247,
      "panor": 7248,
      "salt": 7249,
      "China": 7250,
      "peaches": 7251,
      "hoagie": 7252,
      "obsc": 7253,
      "squats": 7254,
      "landscap": 7255,
      "teamm": 7256,
      "quart": 7257,
      "Boat": 7258,
      "spring": 7259,
      "glider": 7260,
      "grilling": 7261,
      "housing": 7262,
      "hamm": 7263,
      "##ILL": 7264,
      "charger": 7265,
      "customer": 7266,
      "product": 7267,
      "stockings": 7268,
      "instead": 7269,
      "snuggled": 7270,
      "supermarket": 7271,
      "Hands": 7272,
      "Army": 7273,
      "crocheted": 7274,
      "blazer": 7275,
      "estab": 7276,
      "COMPUTER": 7277,
      "channel": 7278,
      "12": 7279,
      "BAB": 7280,
      "King": 7281,
      "Main": 7282,
      "fell": 7283,
      "lant": 7284,
      "nine": 7285,
      "proud": 7286,
      "rally": 7287,
      "sample": 7288,
      "##lane": 7289,
      "##FUL": 7290,
      "##itor": 7291,
      "##ckled": 7292,
      "##ckey": 7293,
      "beautifully": 7294,
      "ske": 7295,
      "##amel": 7296,
      "chill": 7297,
      "chinese": 7298,
      "sidewalks": 7299,
      "hash": 7300,
      "coaster": 7301,
      "boarded": 7302,
      "lego": 7303,
      "##ago": 7304,
      "##ifts": 7305,
      "headband": 7306,
      "headlights": 7307,
      "barber": 7308,
      "household": 7309,
      "peaking": 7310,
      "hockey": 7311,
      "clothed": 7312,
      "speaks": 7313,
      "lands": 7314,
      "STUFF": 7315,
      "Skate": 7316,
      "rooft": 7317,
      "laden": 7318,
      "##ORT": 7319,
      "depar": 7320,
      "median": 7321,
      "deliver": 7322,
      "##usky": 7323,
      "SUIT": 7324,
      "weathered": 7325,
      "combing": 7326,
      "Building": 7327,
      "##VERAL": 7328,
      "flavors": 7329,
      "stoves": 7330,
      "oxen": 7331,
      "iPhone": 7332,
      "rapids": 7333,
      "SEVERAL": 7334,
      "nuzzling": 7335,
      "yacht": 7336,
      "stylized": 7337,
      "GOING": 7338,
      "LITTLE": 7339,
      "overturned": 7340,
      "FRISBEE": 7341,
      "architectural": 7342,
      "destroyed": 7343,
      "structures": 7344,
      "Ang": 7345,
      "Broad": 7346,
      "DE": 7347,
      "Dirt": 7348,
      "Front": 7349,
      "Ref": 7350,
      "Siamese": 7351,
      "aboard": 7352,
      "fu": 7353,
      "fet": 7354,
      "rat": 7355,
      "zo": 7356,
      "##nut": 7357,
      "##lings": 7358,
      "took": 7359,
      "##irl": 7360,
      "##isted": 7361,
      "##ello": 7362,
      "##icans": 7363,
      "bubble": 7364,
      "##ffice": 7365,
      "##oodle": 7366,
      "shack": 7367,
      "##rier": 7368,
      "gras": 7369,
      "signing": 7370,
      "react": 7371,
      "lips": 7372,
      "motorboat": 7373,
      "##rise": 7374,
      "alpine": 7375,
      "leashes": 7376,
      "lightly": 7377,
      "contact": 7378,
      "viewer": 7379,
      "taller": 7380,
      "broad": 7381,
      "##arium": 7382,
      "##tenance": 7383,
      "attack": 7384,
      "patriotic": 7385,
      "halfway": 7386,
      "##ize": 7387,
      "amaz": 7388,
      "layed": 7389,
      "worked": 7390,
      "stylish": 7391,
      "packs": 7392,
      "##bbling": 7393,
      "exterior": 7394,
      "sorts": 7395,
      "captive": 7396,
      "studying": 7397,
      "hamburgers": 7398,
      "instructor": 7399,
      "wander": 7400,
      "ornamental": 7401,
      "tattoos": 7402,
      "##ccupied": 7403,
      "AIRPL": 7404,
      "Outdo": 7405,
      "blades": 7406,
      "rhino": 7407,
      "lunging": 7408,
      "Starbucks": 7409,
      "employ": 7410,
      "MOTORC": 7411,
      "contraption": 7412,
      "political": 7413,
      "intricate": 7414,
      "jewel": 7415,
      "columns": 7416,
      "Square": 7417,
      "Doorway": 7418,
      "activities": 7419,
      "teapot": 7420,
      "BABY": 7421,
      "Broadway": 7422,
      "Glass": 7423,
      "LIGHT": 7424,
      "Met": 7425,
      "Oriental": 7426,
      "Roman": 7427,
      "TREE": 7428,
      "Well": 7429,
      "West": 7430,
      "cave": 7431,
      "hides": 7432,
      "ni": 7433,
      "rink": 7434,
      "##uah": 7435,
      "##orous": 7436,
      "##occupied": 7437,
      "##ORE": 7438,
      "##IES": 7439,
      "##back": 7440,
      "##ULL": 7441,
      "##TH": 7442,
      "##NER": 7443,
      "##inating": 7444,
      "##atian": 7445,
      "stages": 7446,
      "##ashed": 7447,
      "##irgin": 7448,
      "##olding": 7449,
      "those": 7450,
      "changing": 7451,
      "coated": 7452,
      "sep": 7453,
      "preform": 7454,
      "##fficult": 7455,
      "kno": 7456,
      "controlled": 7457,
      "server": 7458,
      "salsa": 7459,
      "docking": 7460,
      "pauses": 7461,
      "##almatian": 7462,
      "checker": 7463,
      "turb": 7464,
      "turtle": 7465,
      "##IRT": 7466,
      "twent": 7467,
      "teens": 7468,
      "mitts": 7469,
      "groomed": 7470,
      "expired": 7471,
      "tosses": 7472,
      "musc": 7473,
      "cranes": 7474,
      "maintain": 7475,
      "receive": 7476,
      "England": 7477,
      "##ratul": 7478,
      "SKATEBOARD": 7479,
      "Interior": 7480,
      "athletes": 7481,
      "affection": 7482,
      "horizont": 7483,
      "Bicycles": 7484,
      "pelican": 7485,
      "pantry": 7486,
      "shooting": 7487,
      "wooly": 7488,
      "burrito": 7489,
      "woven": 7490,
      "murky": 7491,
      "##ihuah": 7492,
      "establish": 7493,
      "##ihuahua": 7494,
      "18": 7495,
      "Cake": 7496,
      "Cats": 7497,
      "Cute": 7498,
      "Dri": 7499,
      "DVD": 7500,
      "Mountain": 7501,
      "OCE": 7502,
      "RV": 7503,
      "Ser": 7504,
      "Tables": 7505,
      "bone": 7506,
      "certain": 7507,
      "diced": 7508,
      "era": 7509,
      "nook": 7510,
      "oat": 7511,
      "pac": 7512,
      "ver": 7513,
      "wrong": 7514,
      "year": 7515,
      "##ule": 7516,
      "##ugs": 7517,
      "##mers": 7518,
      "##rink": 7519,
      "##wor": 7520,
      "therm": 7521,
      "buds": 7522,
      "repl": 7523,
      "backseat": 7524,
      "toilette": 7525,
      "Those": 7526,
      "grave": 7527,
      "browns": 7528,
      "##orted": 7529,
      "##asts": 7530,
      "swamp": 7531,
      "swift": 7532,
      "fireman": 7533,
      "difficult": 7534,
      "##ggling": 7535,
      "able": 7536,
      "##iforn": 7537,
      "##dock": 7538,
      "brass": 7539,
      "crowds": 7540,
      "proj": 7541,
      "marks": 7542,
      "##othic": 7543,
      "canv": 7544,
      "interstate": 7545,
      "hello": 7546,
      "paneling": 7547,
      "salads": 7548,
      "OFF": 7549,
      "styles": 7550,
      "pretz": 7551,
      "##AST": 7552,
      "Airport": 7553,
      "##ICH": 7554,
      "boulders": 7555,
      "##ensive": 7556,
      "casting": 7557,
      "##flower": 7558,
      "observe": 7559,
      "cheeses": 7560,
      "unused": 7561,
      "Busy": 7562,
      "fryer": 7563,
      "sleeve": 7564,
      "CARS": 7565,
      "sauerk": 7566,
      "Sandwiches": 7567,
      "curiously": 7568,
      "hearts": 7569,
      "assembly": 7570,
      "spreads": 7571,
      "Bedroom": 7572,
      "Electronic": 7573,
      "aquarium": 7574,
      "Statue": 7575,
      "TRACKS": 7576,
      "Players": 7577,
      "UMBRELLA": 7578,
      "handlebars": 7579,
      "recreational": 7580,
      "BOWL": 7581,
      "elevator": 7582,
      "hammock": 7583,
      "sepia": 7584,
      "OCEAN": 7585,
      "##ifornia": 7586,
      "Farm": 7587,
      "Pieces": 7588,
      "Tooth": 7589,
      "Vase": 7590,
      "brushed": 7591,
      "cant": 7592,
      "cris": 7593,
      "find": 7594,
      "fold": 7595,
      "gathers": 7596,
      "ping": 7597,
      "rum": 7598,
      "root": 7599,
      "ti": 7600,
      "til": 7601,
      "wrought": 7602,
      "##lor": 7603,
      "##lift": 7604,
      "##HERE": 7605,
      "##ank": 7606,
      "##oring": 7607,
      "##rab": 7608,
      "##elve": 7609,
      "##ards": 7610,
      "##eopard": 7611,
      "boiled": 7612,
      "cho": 7613,
      "##acher": 7614,
      "bases": 7615,
      "motes": 7616,
      "clocktower": 7617,
      "wak": 7618,
      "wavy": 7619,
      "##aps": 7620,
      "throughout": 7621,
      "column": 7622,
      "prey": 7623,
      "hyd": 7624,
      "standup": 7625,
      "unb": 7626,
      "loves": 7627,
      "races": 7628,
      "cann": 7629,
      "sleepy": 7630,
      "rowboat": 7631,
      "greet": 7632,
      "##auty": 7633,
      "layers": 7634,
      "trailers": 7635,
      "paying": 7636,
      "entire": 7637,
      "famous": 7638,
      "##born": 7639,
      "lefto": 7640,
      "seeing": 7641,
      "gloomy": 7642,
      "##meal": 7643,
      "quaint": 7644,
      "checked": 7645,
      "##ETHING": 7646,
      "crazy": 7647,
      "modified": 7648,
      "misses": 7649,
      "surroundings": 7650,
      "Skateboarders": 7651,
      "ribbons": 7652,
      "maintenance": 7653,
      "fairly": 7654,
      "plank": 7655,
      "arrive": 7656,
      "League": 7657,
      "SOMETHING": 7658,
      "blueberry": 7659,
      "divider": 7660,
      "extreme": 7661,
      "##IEW": 7662,
      "demonstration": 7663,
      "spreading": 7664,
      "investigating": 7665,
      "frisby": 7666,
      "animated": 7667,
      "dangling": 7668,
      "Seagulls": 7669,
      "underside": 7670,
      "President": 7671,
      "plunger": 7672,
      "quarters": 7673,
      "employee": 7674,
      "MOTORCYCLE": 7675,
      "Aust": 7676,
      "Cut": 7677,
      "CON": 7678,
      "Fran": 7679,
      "HE": 7680,
      "Haw": 7681,
      "LE": 7682,
      "Mini": 7683,
      "Navy": 7684,
      "Pe": 7685,
      "PC": 7686,
      "Suit": 7687,
      "VIEW": 7688,
      "fou": 7689,
      "leopard": 7690,
      "pong": 7691,
      "poodle": 7692,
      "sigh": 7693,
      "tit": 7694,
      "wid": 7695,
      "##nas": 7696,
      "##ae": 7697,
      "##tel": 7698,
      "##VES": 7699,
      "##Ex": 7700,
      "##well": 7701,
      "##WICH": 7702,
      "##itti": 7703,
      "stalks": 7704,
      "beam": 7705,
      "skew": 7706,
      "##eburger": 7707,
      "##aining": 7708,
      "##stract": 7709,
      "playfully": 7710,
      "combo": 7711,
      "##mber": 7712,
      "backside": 7713,
      "constructed": 7714,
      "temp": 7715,
      "preser": 7716,
      "safe": 7717,
      "prof": 7718,
      "knot": 7719,
      "THEIR": 7720,
      "whose": 7721,
      "steal": 7722,
      "blank": 7723,
      "paddock": 7724,
      "butcher": 7725,
      "rounded": 7726,
      "Asia": 7727,
      "##OTH": 7728,
      "ceilings": 7729,
      "models": 7730,
      "follow": 7731,
      "streamers": 7732,
      "eyeglasses": 7733,
      "glaze": 7734,
      "tongs": 7735,
      "patterns": 7736,
      "lifegu": 7737,
      "##ELF": 7738,
      "magnet": 7739,
      "##undown": 7740,
      "ITS": 7741,
      "operated": 7742,
      "learn": 7743,
      "idly": 7744,
      "protru": 7745,
      "kayaks": 7746,
      "minimal": 7747,
      "Lego": 7748,
      "##amsung": 7749,
      "bordered": 7750,
      "blade": 7751,
      "rhin": 7752,
      "lunges": 7753,
      "Amtrak": 7754,
      "employees": 7755,
      "maneuver": 7756,
      "wrestling": 7757,
      "Claus": 7758,
      "##iques": 7759,
      "graduation": 7760,
      "California": 7761,
      "SANDWICH": 7762,
      "appetizers": 7763,
      "community": 7764,
      "trotting": 7765,
      "Outdoor": 7766,
      "sauerkraut": 7767,
      "50": 7768,
      "Bag": 7769,
      "Bread": 7770,
      "BOO": 7771,
      "Fla": 7772,
      "Ne": 7773,
      "RUN": 7774,
      "TOWER": 7775,
      "Victor": 7776,
      "award": 7777,
      "bake": 7778,
      "ere": 7779,
      "gifts": 7780,
      "rul": 7781,
      "rush": 7782,
      "squee": 7783,
      "tack": 7784,
      "tell": 7785,
      "tric": 7786,
      "ven": 7787,
      "##oked": 7788,
      "##net": 7789,
      "##cell": 7790,
      "##dale": 7791,
      "##Donal": 7792,
      "##roning": 7793,
      "staff": 7794,
      "beauty": 7795,
      "shark": 7796,
      "launch": 7797,
      "outhouse": 7798,
      "outdated": 7799,
      "caramel": 7800,
      "bust": 7801,
      "##stick": 7802,
      "##eeled": 7803,
      "succ": 7804,
      "shepherd": 7805,
      "brownies": 7806,
      "lighter": 7807,
      "##play": 7808,
      "##ifying": 7809,
      "unkn": 7810,
      "unoccupied": 7811,
      "##INE": 7812,
      "cabs": 7813,
      "pitches": 7814,
      "novel": 7815,
      "triangle": 7816,
      "peer": 7817,
      "peels": 7818,
      "states": 7819,
      "performance": 7820,
      "wheat": 7821,
      "partition": 7822,
      "arts": 7823,
      "burgers": 7824,
      "starts": 7825,
      "##OUR": 7826,
      "leafless": 7827,
      "bushy": 7828,
      "##ensely": 7829,
      "ATV": 7830,
      "presenting": 7831,
      "laughs": 7832,
      "newspapers": 7833,
      "Shot": 7834,
      "Shirt": 7835,
      "recently": 7836,
      "India": 7837,
      "brace": 7838,
      "region": 7839,
      "Snowboarders": 7840,
      "nightstands": 7841,
      "COMING": 7842,
      "##marine": 7843,
      "Bowls": 7844,
      "foamy": 7845,
      "SOMEONE": 7846,
      "discussing": 7847,
      "merch": 7848,
      "graphic": 7849,
      "mechanical": 7850,
      "Desk": 7851,
      "technolog": 7852,
      "juicer": 7853,
      "BANAN": 7854,
      "VEGETABLES": 7855,
      "perspective": 7856,
      "Image": 7857,
      "Pitcher": 7858,
      "skelet": 7859,
      "establishment": 7860,
      "replica": 7861,
      "canvas": 7862,
      "unknown": 7863,
      "30": 7864,
      "Bot": 7865,
      "Elderly": 7866,
      "Father": 7867,
      "Gi": 7868,
      "GU": 7869,
      "Kid": 7870,
      "Kreme": 7871,
      "Li": 7872,
      "OT": 7873,
      "Rest": 7874,
      "Sub": 7875,
      "Something": 7876,
      "Vol": 7877,
      "age": 7878,
      "bitten": 7879,
      "crying": 7880,
      "ding": 7881,
      "dre": 7882,
      "fellow": 7883,
      "gau": 7884,
      "ironing": 7885,
      "lic": 7886,
      "packet": 7887,
      "rundown": 7888,
      "som": 7889,
      "vines": 7890,
      "##col": 7891,
      "##AZ": 7892,
      "##ham": 7893,
      "##haw": 7894,
      "##arf": 7895,
      "##onial": 7896,
      "##etted": 7897,
      "whip": 7898,
      "##igious": 7899,
      "##icles": 7900,
      "##icular": 7901,
      "##abil": 7902,
      "bump": 7903,
      "##urious": 7904,
      "coupe": 7905,
      "fixed": 7906,
      "batch": 7907,
      "parks": 7908,
      "grind": 7909,
      "blown": 7910,
      "airliners": 7911,
      "herds": 7912,
      "lizard": 7913,
      "overalls": 7914,
      "converted": 7915,
      "shears": 7916,
      "boating": 7917,
      "abund": 7918,
      "##dryer": 7919,
      "##IND": 7920,
      "lock": 7921,
      "##REN": 7922,
      "panting": 7923,
      "States": 7924,
      "##inton": 7925,
      "##uttered": 7926,
      "styrofoam": 7927,
      "newborn": 7928,
      "feather": 7929,
      "feature": 7930,
      "AREA": 7931,
      "anticip": 7932,
      "shovel": 7933,
      "propellor": 7934,
      "microphones": 7935,
      "PLAYER": 7936,
      "labels": 7937,
      "alleyway": 7938,
      "cheeseburger": 7939,
      "groceries": 7940,
      "recipe": 7941,
      "Hotel": 7942,
      "COUPLE": 7943,
      "wreath": 7944,
      "companion": 7945,
      "Photograph": 7946,
      "Chef": 7947,
      "##EEP": 7948,
      "robes": 7949,
      "Market": 7950,
      "navig": 7951,
      "crumbs": 7952,
      "hours": 7953,
      "meatballs": 7954,
      "twigs": 7955,
      "memorial": 7956,
      "flanked": 7957,
      "chatting": 7958,
      "welcome": 7959,
      "McDonal": 7960,
      "spiral": 7961,
      "injured": 7962,
      "AIRPLANE": 7963,
      "jewelry": 7964,
      "oatmeal": 7965,
      "projection": 7966,
      "Ca": 7967,
      "Chic": 7968,
      "Krispy": 7969,
      "Res": 7970,
      "Ur": 7971,
      "Wine": 7972,
      "WALL": 7973,
      "ast": 7974,
      "gig": 7975,
      "husky": 7976,
      "norm": 7977,
      "oar": 7978,
      "tshirt": 7979,
      "vers": 7980,
      "yaw": 7981,
      "zip": 7982,
      "zomb": 7983,
      "##aii": 7984,
      "##mo": 7985,
      "##ha": 7986,
      "##TO": 7987,
      "inner": 7988,
      "mang": 7989,
      "think": 7990,
      "beads": 7991,
      "roasting": 7992,
      "##atee": 7993,
      "floored": 7994,
      "grate": 7995,
      "loose": 7996,
      "##eeper": 7997,
      "coaches": 7998,
      "couples": 7999,
      "conven": 8000,
      "least": 8001,
      "scall": 8002,
      "deal": 8003,
      "veg": 8004,
      "spraw": 8005,
      "livingroom": 8006,
      "firefight": 8007,
      "soars": 8008,
      "hitched": 8009,
      "##acy": 8010,
      "##aces": 8011,
      "boxed": 8012,
      "program": 8013,
      "sunb": 8014,
      "curls": 8015,
      "allowed": 8016,
      "pancake": 8017,
      "Stud": 8018,
      "fours": 8019,
      "exch": 8020,
      "freely": 8021,
      "helmeted": 8022,
      "submarine": 8023,
      "curbside": 8024,
      "centerpiece": 8025,
      "overlook": 8026,
      "What": 8027,
      "discs": 8028,
      "##monds": 8029,
      "rearview": 8030,
      "STAND": 8031,
      "Indi": 8032,
      "pleas": 8033,
      "COUCH": 8034,
      "peaceful": 8035,
      "repairs": 8036,
      "pineapples": 8037,
      "eager": 8038,
      "stovet": 8039,
      "OUTSIDE": 8040,
      "streetlights": 8041,
      "cottage": 8042,
      "goofy": 8043,
      "navigating": 8044,
      "drum": 8045,
      "revealing": 8046,
      "releasing": 8047,
      "ORAN": 8048,
      "participating": 8049,
      "invol": 8050,
      "FedEx": 8051,
      "scrambled": 8052,
      "Golden": 8053,
      "effect": 8054,
      "demol": 8055,
      "trophy": 8056,
      "Corner": 8057,
      "Dinner": 8058,
      "swiftly": 8059,
      "Austral": 8060,
      "lifeguard": 8061,
      "tricycle": 8062,
      "##cellaneous": 8063,
      "OTHER": 8064,
      "Chicago": 8065,
      "Ab": 8066,
      "CL": 8067,
      "Ducks": 8068,
      "Flo": 8069,
      "HY": 8070,
      "Lo": 8071,
      "Ma": 8072,
      "Mic": 8073,
      "Nok": 8074,
      "Office": 8075,
      "Rem": 8076,
      "Sa": 8077,
      "WOR": 8078,
      "YARD": 8079,
      "aer": 8080,
      "last": 8081,
      "nails": 8082,
      "pra": 8083,
      "tips": 8084,
      "wants": 8085,
      "yield": 8086,
      "##pace": 8087,
      "##yle": 8088,
      "##OC": 8089,
      "##ints": 8090,
      "##anish": 8091,
      "##atively": 8092,
      "bud": 8093,
      "bearing": 8094,
      "beaks": 8095,
      "##ader": 8096,
      "plac": 8097,
      "parlor": 8098,
      "chun": 8099,
      "bedside": 8100,
      "playful": 8101,
      "forrest": 8102,
      "coal": 8103,
      "seal": 8104,
      "seper": 8105,
      "Thomas": 8106,
      "alt": 8107,
      "almonds": 8108,
      "shearing": 8109,
      "slal": 8110,
      "##agle": 8111,
      "banners": 8112,
      "abstract": 8113,
      "kiteboard": 8114,
      "##venile": 8115,
      "coral": 8116,
      "sunflower": 8117,
      "canned": 8118,
      "looked": 8119,
      "surrounds": 8120,
      "mats": 8121,
      "amen": 8122,
      "facial": 8123,
      "quiche": 8124,
      "wedges": 8125,
      "bloom": 8126,
      "neath": 8127,
      "##AYING": 8128,
      "visor": 8129,
      "flipped": 8130,
      "waterski": 8131,
      "celebratory": 8132,
      "buliding": 8133,
      "indicate": 8134,
      "booths": 8135,
      "##AMP": 8136,
      "##NTAIN": 8137,
      "stroll": 8138,
      "ROAD": 8139,
      "melon": 8140,
      "WATCHING": 8141,
      "##ebox": 8142,
      "folks": 8143,
      "details": 8144,
      "sweets": 8145,
      "drops": 8146,
      "bison": 8147,
      "barbeque": 8148,
      "SURFING": 8149,
      "messing": 8150,
      "renovation": 8151,
      "pilots": 8152,
      "rapid": 8153,
      "retriever": 8154,
      "oversized": 8155,
      "discussion": 8156,
      "gestures": 8157,
      "hurdle": 8158,
      "seasoning": 8159,
      "Teenag": 8160,
      "varying": 8161,
      "windmill": 8162,
      "twenty": 8163,
      "yawning": 8164,
      "stovetop": 8165,
      "Nokia": 8166,
      "Bunch": 8167,
      "CELL": 8168,
      "Dun": 8169,
      "El": 8170,
      "Every": 8171,
      "Lunch": 8172,
      "Sty": 8173,
      "TRE": 8174,
      "Time": 8175,
      "Wall": 8176,
      "bits": 8177,
      "las": 8178,
      "mp": 8179,
      "native": 8180,
      "pub": 8181,
      "sure": 8182,
      "spen": 8183,
      "vel": 8184,
      "via": 8185,
      "western": 8186,
      "##pipe": 8187,
      "##ec": 8188,
      "##creen": 8189,
      "##DY": 8190,
      "##DR": 8191,
      "##SES": 8192,
      "##TS": 8193,
      "##inted": 8194,
      "ank": 8195,
      "##irie": 8196,
      "##outs": 8197,
      "peoples": 8198,
      "frow": 8199,
      "fixes": 8200,
      "chihuahua": 8201,
      "uphill": 8202,
      "snowman": 8203,
      "##ulture": 8204,
      "kitchenette": 8205,
      "convert": 8206,
      "intense": 8207,
      "##apen": 8208,
      "brownie": 8209,
      "scrap": 8210,
      "tem": 8211,
      "goatee": 8212,
      "##ickey": 8213,
      "##vender": 8214,
      "sunrise": 8215,
      "controlling": 8216,
      "monk": 8217,
      "##losed": 8218,
      "rescue": 8219,
      "raincoat": 8220,
      "##weed": 8221,
      "matches": 8222,
      "##ATION": 8223,
      "platforms": 8224,
      "directs": 8225,
      "flatbread": 8226,
      "packaging": 8227,
      "##osaur": 8228,
      "locations": 8229,
      "Box": 8230,
      "##ETTING": 8231,
      "burned": 8232,
      "##uffs": 8233,
      "##avids": 8234,
      "toddlers": 8235,
      "mason": 8236,
      "exha": 8237,
      "Pictures": 8238,
      "shrub": 8239,
      "saddled": 8240,
      "pinned": 8241,
      "repres": 8242,
      "aprons": 8243,
      "popular": 8244,
      "recei": 8245,
      "activity": 8246,
      "repairing": 8247,
      "seasoned": 8248,
      "attend": 8249,
      "GROUND": 8250,
      "parasols": 8251,
      "CHILDREN": 8252,
      "contempl": 8253,
      "croissants": 8254,
      "tusked": 8255,
      "Electric": 8256,
      "incre": 8257,
      "scoop": 8258,
      "promin": 8259,
      "diagonal": 8260,
      "congratul": 8261,
      "barricade": 8262,
      "vessel": 8263,
      "pudding": 8264,
      "coconut": 8265,
      "Umbrellas": 8266,
      "cheek": 8267,
      "rooftop": 8268,
      "preforming": 8269,
      "horizontal": 8270,
      "GUY": 8271,
      "Individual": 8272,
      "chunks": 8273,
      "##avidson": 8274,
      "CUT": 8275,
      "FE": 8276,
      "Few": 8277,
      "Holly": 8278,
      "LADY": 8279,
      "LAYING": 8280,
      "Sep": 8281,
      "Tower": 8282,
      "bound": 8283,
      "crash": 8284,
      "cyl": 8285,
      "dolly": 8286,
      "gummy": 8287,
      "roped": 8288,
      "samp": 8289,
      "tightly": 8290,
      "tipped": 8291,
      "ye": 8292,
      "##cer": 8293,
      "##wag": 8294,
      "##water": 8295,
      "##ream": 8296,
      "##ros": 8297,
      "tol": 8298,
      "mantel": 8299,
      "##allows": 8300,
      "##raction": 8301,
      "##elt": 8302,
      "whine": 8303,
      "bored": 8304,
      "pars": 8305,
      "lace": 8306,
      "lazy": 8307,
      "charm": 8308,
      "##ional": 8309,
      "outs": 8310,
      "grano": 8311,
      "cos": 8312,
      "cob": 8313,
      "##ieval": 8314,
      "disp": 8315,
      "glassware": 8316,
      "score": 8317,
      "handler": 8318,
      "handling": 8319,
      "##aki": 8320,
      "offers": 8321,
      "brocc": 8322,
      "##vish": 8323,
      "attraction": 8324,
      "patient": 8325,
      "forehand": 8326,
      "##dering": 8327,
      "planted": 8328,
      "Station": 8329,
      "hairdryer": 8330,
      "given": 8331,
      "tanks": 8332,
      "century": 8333,
      "arranging": 8334,
      "pointy": 8335,
      "##scale": 8336,
      "juvenile": 8337,
      "##iously": 8338,
      "Boxes": 8339,
      "Boston": 8340,
      "##bank": 8341,
      "##brant": 8342,
      "dollar": 8343,
      "costumed": 8344,
      "masks": 8345,
      "Shel": 8346,
      "hamster": 8347,
      "celebrate": 8348,
      "Benches": 8349,
      "taste": 8350,
      "childs": 8351,
      "denim": 8352,
      "sprayed": 8353,
      "dumpster": 8354,
      "workspace": 8355,
      "religious": 8356,
      "bundt": 8357,
      "needles": 8358,
      "sneaker": 8359,
      "USA": 8360,
      "Cheese": 8361,
      "SIGNS": 8362,
      "cockpit": 8363,
      "edges": 8364,
      "Pasta": 8365,
      "luxury": 8366,
      "##cisco": 8367,
      "cruising": 8368,
      "wonderful": 8369,
      "gnar": 8370,
      "Doughnuts": 8371,
      "##works": 8372,
      "Suitcases": 8373,
      "ruler": 8374,
      "skeleton": 8375,
      "license": 8376,
      "TREES": 8377,
      "mp3": 8378,
      "frowning": 8379,
      "convertible": 8380,
      "exhaust": 8381,
      "granola": 8382,
      "Cont": 8383,
      "Dess": 8384,
      "Jo": 8385,
      "KEP": 8386,
      "Nine": 8387,
      "Pat": 8388,
      "RES": 8389,
      "Samsung": 8390,
      "TALL": 8391,
      "VASE": 8392,
      "bom": 8393,
      "dro": 8394,
      "galley": 8395,
      "jack": 8396,
      "mm": 8397,
      "ost": 8398,
      "occ": 8399,
      "peop": 8400,
      "pins": 8401,
      "tas": 8402,
      "##unt": 8403,
      "##dit": 8404,
      "##SING": 8405,
      "##NING": 8406,
      "##GG": 8407,
      "##itol": 8408,
      "##ancy": 8409,
      "##atten": 8410,
      "stro": 8411,
      "##asy": 8412,
      "neg": 8413,
      "##elines": 8414,
      "##vern": 8415,
      "doily": 8416,
      "##ami": 8417,
      "lavender": 8418,
      "chick": 8419,
      "choc": 8420,
      "##rio": 8421,
      "##ander": 8422,
      "##veled": 8423,
      "##stairs": 8424,
      "##ential": 8425,
      "##rang": 8426,
      "mouses": 8427,
      "##pens": 8428,
      "switch": 8429,
      "bows": 8430,
      "eachother": 8431,
      "dives": 8432,
      "##ressed": 8433,
      "sales": 8434,
      "emo": 8435,
      "bark": 8436,
      "dinosaur": 8437,
      "##ometer": 8438,
      "purses": 8439,
      "halfpipe": 8440,
      "better": 8441,
      "photographing": 8442,
      "armchair": 8443,
      "triangular": 8444,
      "stately": 8445,
      "hugs": 8446,
      "urn": 8447,
      "wildflowers": 8448,
      "concer": 8449,
      "swimmers": 8450,
      "##ETS": 8451,
      "leafs": 8452,
      "adorn": 8453,
      "##iffel": 8454,
      "Kitty": 8455,
      "angel": 8456,
      "Motorcyclists": 8457,
      "crooked": 8458,
      "filming": 8459,
      "SHEEP": 8460,
      "related": 8461,
      "bundles": 8462,
      "await": 8463,
      "parachutes": 8464,
      "peanuts": 8465,
      "knitting": 8466,
      "movies": 8467,
      "minutes": 8468,
      "Spanish": 8469,
      "silhouetted": 8470,
      "nowhere": 8471,
      "defensive": 8472,
      "automobiles": 8473,
      "socializing": 8474,
      "marshm": 8475,
      "symbols": 8476,
      "Construction": 8477,
      "drums": 8478,
      "crochet": 8479,
      "browsing": 8480,
      "Harley": 8481,
      "##CTION": 8482,
      "ferris": 8483,
      "icebox": 8484,
      "Orn": 8485,
      "spanning": 8486,
      "duffel": 8487,
      "ANIMALS": 8488,
      "COLOR": 8489,
      "Francisco": 8490,
      "Hawaii": 8491,
      "normal": 8492,
      "slalom": 8493,
      "velvet": 8494,
      "##DRANT": 8495,
      "KEPT": 8496,
      "Arab": 8497,
      "BM": 8498,
      "Bra": 8499,
      "Ford": 8500,
      "Kite": 8501,
      "Line": 8502,
      "Mer": 8503,
      "Middle": 8504,
      "Pre": 8505,
      "Queen": 8506,
      "Rock": 8507,
      "Seat": 8508,
      "School": 8509,
      "Trucks": 8510,
      "VW": 8511,
      "hoo": 8512,
      "linger": 8513,
      "poll": 8514,
      "pric": 8515,
      "punch": 8516,
      "rag": 8517,
      "rared": 8518,
      "siamese": 8519,
      "testing": 8520,
      "tells": 8521,
      "##iel": 8522,
      "##aved": 8523,
      "##gund": 8524,
      "##RA": 8525,
      "##arth": 8526,
      "inn": 8527,
      "anten": 8528,
      "##rob": 8529,
      "toll": 8530,
      "##rack": 8531,
      "whom": 8532,
      "lavish": 8533,
      "choo": 8534,
      "battle": 8535,
      "flour": 8536,
      "##igns": 8537,
      "basement": 8538,
      "waking": 8539,
      "##kswag": 8540,
      "graf": 8541,
      "handmade": 8542,
      "handstand": 8543,
      "##ifier": 8544,
      "drizz": 8545,
      "soil": 8546,
      "##dog": 8547,
      "headset": 8548,
      "##igerator": 8549,
      "arches": 8550,
      "##ustr": 8551,
      "racers": 8552,
      "##plant": 8553,
      "numbered": 8554,
      "exper": 8555,
      "cleaner": 8556,
      "##LES": 8557,
      "penny": 8558,
      "##riches": 8559,
      "laps": 8560,
      "facade": 8561,
      "wraps": 8562,
      "quar": 8563,
      "messages": 8564,
      "rugby": 8565,
      "burgund": 8566,
      "starring": 8567,
      "misty": 8568,
      "miscellaneous": 8569,
      "Planes": 8570,
      "grows": 8571,
      "sodas": 8572,
      "medieval": 8573,
      "Guys": 8574,
      "transported": 8575,
      "WHILE": 8576,
      "auditor": 8577,
      "##ADE": 8578,
      "guards": 8579,
      "PARKING": 8580,
      "receiving": 8581,
      "Coffee": 8582,
      "COUNT": 8583,
      "tripod": 8584,
      "##desdale": 8585,
      "WINE": 8586,
      "mannequins": 8587,
      "MOUNTAIN": 8588,
      "tones": 8589,
      "LAPT": 8590,
      "luxurious": 8591,
      "searching": 8592,
      "##iversity": 8593,
      "dangerous": 8594,
      "ripped": 8595,
      "loveseat": 8596,
      "cannot": 8597,
      "Victorian": 8598,
      "dingy": 8599,
      "gigantic": 8600,
      "sprawled": 8601,
      "demolished": 8602,
      "prairie": 8603,
      "amenities": 8604,
      "Dunkin": 8605,
      "sampling": 8606,
      "burgundy": 8607,
      "auditorium": 8608,
      "Action": 8609,
      "Cly": 8610,
      "DOU": 8611,
      "Ent": 8612,
      "His": 8613,
      "Not": 8614,
      "Nice": 8615,
      "Pots": 8616,
      "Tree": 8617,
      "dated": 8618,
      "gothic": 8619,
      "sip": 8620,
      "wades": 8621,
      "##kward": 8622,
      "##LY": 8623,
      "##rid": 8624,
      "##fth": 8625,
      "##held": 8626,
      "onward": 8627,
      "##ala": 8628,
      "tots": 8629,
      "manic": 8630,
      "beams": 8631,
      "skim": 8632,
      "womans": 8633,
      "chip": 8634,
      "upscale": 8635,
      "overview": 8636,
      "concept": 8637,
      "compon": 8638,
      "mens": 8639,
      "always": 8640,
      "slat": 8641,
      "ash": 8642,
      "handrail": 8643,
      "##agna": 8644,
      "banks": 8645,
      "contin": 8646,
      "##lesc": 8647,
      "hilltop": 8648,
      "chew": 8649,
      "stationed": 8650,
      "##acing": 8651,
      "envel": 8652,
      "knight": 8653,
      "breaks": 8654,
      "diners": 8655,
      "planters": 8656,
      "pecking": 8657,
      "host": 8658,
      "credit": 8659,
      "notep": 8660,
      "speckled": 8661,
      "sailors": 8662,
      "flys": 8663,
      "swimsuit": 8664,
      "globe": 8665,
      "rooster": 8666,
      "##ESS": 8667,
      "##bbled": 8668,
      "terrier": 8669,
      "cracker": 8670,
      "fighters": 8671,
      "twelve": 8672,
      "lids": 8673,
      "medal": 8674,
      "jean": 8675,
      "expos": 8676,
      "casually": 8677,
      "president": 8678,
      "charter": 8679,
      "petted": 8680,
      "stradd": 8681,
      "bento": 8682,
      "observes": 8683,
      "Only": 8684,
      "mattresses": 8685,
      "ordering": 8686,
      "##ptions": 8687,
      "dispens": 8688,
      "obstacles": 8689,
      "protect": 8690,
      "festive": 8691,
      "clustered": 8692,
      "Freshly": 8693,
      "detour": 8694,
      "badm": 8695,
      "limbs": 8696,
      "alcoholic": 8697,
      "sidelines": 8698,
      "donkeys": 8699,
      "grasslands": 8700,
      "member": 8701,
      "iPod": 8702,
      "Tele": 8703,
      "viol": 8704,
      "vibrant": 8705,
      "bruss": 8706,
      "aiming": 8707,
      "missed": 8708,
      "Display": 8709,
      "purchase": 8710,
      "announ": 8711,
      "exerc": 8712,
      "taco": 8713,
      "proceed": 8714,
      "Dirty": 8715,
      "nibbling": 8716,
      "profile": 8717,
      "Shirtless": 8718,
      "HYDRANT": 8719,
      "temple": 8720,
      "Shelves": 8721,
      "ostriches": 8722,
      "##attended": 8723,
      "Both": 8724,
      "Bike": 8725,
      "BUN": 8726,
      "COR": 8727,
      "CUP": 8728,
      "France": 8729,
      "FULL": 8730,
      "HIM": 8731,
      "Mu": 8732,
      "Rain": 8733,
      "Top": 8734,
      "Town": 8735,
      "Virgin": 8736,
      "dw": 8737,
      "ditch": 8738,
      "ec": 8739,
      "effic": 8740,
      "fav": 8741,
      "gum": 8742,
      "hig": 8743,
      "iphone": 8744,
      "munching": 8745,
      "puffy": 8746,
      "sings": 8747,
      "somebody": 8748,
      "tater": 8749,
      "##pad": 8750,
      "##zer": 8751,
      "##iing": 8752,
      "##of": 8753,
      "##nting": 8754,
      "##vice": 8755,
      "##aled": 8756,
      "##yon": 8757,
      "##gons": 8758,
      "##UIT": 8759,
      "##TER": 8760,
      "##west": 8761,
      "##KES": 8762,
      "##heye": 8763,
      "##edded": 8764,
      "##organ": 8765,
      "##ism": 8766,
      "manual": 8767,
      "##ooh": 8768,
      "##hern": 8769,
      "royal": 8770,
      "doc": 8771,
      "##antly": 8772,
      "ribs": 8773,
      "##affolding": 8774,
      "motoc": 8775,
      "##ght": 8776,
      "##imp": 8777,
      "eatery": 8778,
      "wagons": 8779,
      "intensely": 8780,
      "##shot": 8781,
      "raz": 8782,
      "teacher": 8783,
      "diet": 8784,
      "guides": 8785,
      "##acuzz": 8786,
      "hatch": 8787,
      "adding": 8788,
      "looms": 8789,
      "arid": 8790,
      "potty": 8791,
      "patches": 8792,
      "orig": 8793,
      "booze": 8794,
      "Church": 8795,
      "stairwell": 8796,
      "##ROSS": 8797,
      "Travel": 8798,
      "##OWERS": 8799,
      "naps": 8800,
      "seaweed": 8801,
      "circles": 8802,
      "visiting": 8803,
      "sprinkle": 8804,
      "petals": 8805,
      "celebrates": 8806,
      "awkward": 8807,
      "Todd": 8808,
      "illustr": 8809,
      "cliffs": 8810,
      "gazebo": 8811,
      "ordered": 8812,
      "pops": 8813,
      "linked": 8814,
      "friendly": 8815,
      "melting": 8816,
      "shutters": 8817,
      "arrives": 8818,
      "inspect": 8819,
      "pigs": 8820,
      "satell": 8821,
      "Sox": 8822,
      "Silhou": 8823,
      "woolly": 8824,
      "##foil": 8825,
      "inspects": 8826,
      "source": 8827,
      "APPLE": 8828,
      "Cupcakes": 8829,
      "Decorative": 8830,
      "ALONG": 8831,
      "address": 8832,
      "wildebeest": 8833,
      "etc": 8834,
      "##ulent": 8835,
      "technology": 8836,
      "McDonald": 8837,
      "waterskiing": 8838,
      "Hollywood": 8839,
      "Sepia": 8840,
      "toliet": 8841,
      "parsley": 8842,
      "concerned": 8843,
      "badminton": 8844,
      "exercise": 8845,
      "##acuzzi": 8846,
      "AD": 8847,
      "AR": 8848,
      "Dist": 8849,
      "Davidson": 8850,
      "EN": 8851,
      "Egg": 8852,
      "FOUR": 8853,
      "House": 8854,
      "Hello": 8855,
      "MA": 8856,
      "Mouse": 8857,
      "Most": 8858,
      "Port": 8859,
      "Rd": 8860,
      "Tom": 8861,
      "Vases": 8862,
      "Win": 8863,
      "baker": 8864,
      "date": 8865,
      "dude": 8866,
      "dalmatian": 8867,
      "edible": 8868,
      "german": 8869,
      "ivy": 8870,
      "jal": 8871,
      "kh": 8872,
      "keeping": 8873,
      "prist": 8874,
      "puzz": 8875,
      "sen": 8876,
      "sipping": 8877,
      "tale": 8878,
      "tHERE": 8879,
      "val": 8880,
      "yak": 8881,
      "##ucc": 8882,
      "##vard": 8883,
      "##eing": 8884,
      "##ecting": 8885,
      "##glass": 8886,
      "##gien": 8887,
      "##AIL": 8888,
      "##for": 8889,
      "##UST": 8890,
      "##HIND": 8891,
      "##WALK": 8892,
      "##ana": 8893,
      "##lem": 8894,
      "witha": 8895,
      "sta": 8896,
      "##esus": 8897,
      "##iders": 8898,
      "bubbles": 8899,
      "beagle": 8900,
      "holing": 8901,
      "shakes": 8902,
      "shred": 8903,
      "shield": 8904,
      "Their": 8905,
      "launching": 8906,
      "snake": 8907,
      "coca": 8908,
      "pockets": 8909,
      "##ief": 8910,
      "overfl": 8911,
      "secl": 8912,
      "desolate": 8913,
      "alter": 8914,
      "sheared": 8915,
      "slats": 8916,
      "sloped": 8917,
      "grains": 8918,
      "spl": 8919,
      "spilled": 8920,
      "fired": 8921,
      "fireworks": 8922,
      "dips": 8923,
      "cheer": 8924,
      "##ipher": 8925,
      "unpack": 8926,
      "unident": 8927,
      "THEM": 8928,
      "##RESS": 8929,
      "peripher": 8930,
      "ages": 8931,
      "homeless": 8932,
      "allow": 8933,
      "riverbank": 8934,
      "restaurants": 8935,
      "rains": 8936,
      "panels": 8937,
      "State": 8938,
      "picket": 8939,
      "expla": 8940,
      "sailor": 8941,
      "##mingly": 8942,
      "placemat": 8943,
      "creamy": 8944,
      "delic": 8945,
      "interview": 8946,
      "##ORS": 8947,
      "discarded": 8948,
      "steaming": 8949,
      "##ICK": 8950,
      "boulder": 8951,
      "focal": 8952,
      "BEHIND": 8953,
      "combined": 8954,
      "Uniform": 8955,
      "tinfoil": 8956,
      "strolling": 8957,
      "embedded": 8958,
      "stocking": 8959,
      "Business": 8960,
      "util": 8961,
      "infield": 8962,
      "lobster": 8963,
      "majestic": 8964,
      "seaside": 8965,
      "tissues": 8966,
      "automatic": 8967,
      "PIE": 8968,
      "billboards": 8969,
      "crashes": 8970,
      "crashed": 8971,
      "youths": 8972,
      "keeps": 8973,
      "CLOSE": 8974,
      "REF": 8975,
      "fitted": 8976,
      "assembled": 8977,
      "201": 8978,
      "ELEPHANTS": 8979,
      "occupied": 8980,
      "aqua": 8981,
      "perfectly": 8982,
      "memorabil": 8983,
      "bushels": 8984,
      "blenders": 8985,
      "palace": 8986,
      "resemble": 8987,
      "plums": 8988,
      "SLOPE": 8989,
      "panoramic": 8990,
      "landscaping": 8991,
      "proudly": 8992,
      "departing": 8993,
      "tilting": 8994,
      "protruding": 8995,
      "Restaurant": 8996,
      "abundance": 8997,
      "placid": 8998,
      "altitude": 8999,
      "receipt": 9000,
      "Hawaiian": 9001,
      "BMW": 9002,
      "memorabilia": 9003,
      "AS": 9004,
      "Aut": 9005,
      "Ath": 9006,
      "Book": 9007,
      "Cell": 9008,
      "Closed": 9009,
      "DRI": 9010,
      "Eiffel": 9011,
      "Fans": 9012,
      "FEN": 9013,
      "Fancy": 9014,
      "Hum": 9015,
      "KITE": 9016,
      "MO": 9017,
      "North": 9018,
      "Pac": 9019,
      "PRO": 9020,
      "PASS": 9021,
      "Tran": 9022,
      "TUB": 9023,
      "bris": 9024,
      "lass": 9025,
      "song": 9026,
      "##pa": 9027,
      "##ued": 9028,
      "##uge": 9029,
      "##rd": 9030,
      "##inis": 9031,
      "##itter": 9032,
      "##len": 9033,
      "##levard": 9034,
      "infront": 9035,
      "##asion": 9036,
      "##onn": 9037,
      "isn": 9038,
      "##opened": 9039,
      "##rad": 9040,
      "##iler": 9041,
      "necess": 9042,
      "##igan": 9043,
      "beets": 9044,
      "skill": 9045,
      "fift": 9046,
      "topless": 9047,
      "chases": 9048,
      "flats": 9049,
      "outlet": 9050,
      "surg": 9051,
      "based": 9052,
      "reigns": 9053,
      "disg": 9054,
      "heating": 9055,
      "handheld": 9056,
      "##shopped": 9057,
      "trench": 9058,
      "countries": 9059,
      "offering": 9060,
      "##eaten": 9061,
      "##ubby": 9062,
      "moved": 9063,
      "THRO": 9064,
      "##ipes": 9065,
      "unattended": 9066,
      "uneaten": 9067,
      "loads": 9068,
      "empt": 9069,
      "##usband": 9070,
      "jetliners": 9071,
      "##ools": 9072,
      "##cedes": 9073,
      "ord": 9074,
      "##ITING": 9075,
      "##uded": 9076,
      "sticky": 9077,
      "shopped": 9078,
      "pews": 9079,
      "##LED": 9080,
      "cooker": 9081,
      "english": 9082,
      "creature": 9083,
      "picturesque": 9084,
      "drawings": 9085,
      "seemingly": 9086,
      "curtained": 9087,
      "##osk": 9088,
      "##berty": 9089,
      "artist": 9090,
      "rounds": 9091,
      "juggling": 9092,
      "formations": 9093,
      "Personal": 9094,
      "antiques": 9095,
      "extern": 9096,
      "shipping": 9097,
      "pawing": 9098,
      "Blond": 9099,
      "raisins": 9100,
      "##covered": 9101,
      "guitars": 9102,
      "##flies": 9103,
      "collie": 9104,
      "Bridge": 9105,
      "angles": 9106,
      "converse": 9107,
      "sprays": 9108,
      "CHE": 9109,
      "gazes": 9110,
      "warmly": 9111,
      "workshop": 9112,
      "serviced": 9113,
      "elbow": 9114,
      "faucets": 9115,
      "gripping": 9116,
      "install": 9117,
      "notebooks": 9118,
      "FRUIT": 9119,
      "BUSY": 9120,
      "bloody": 9121,
      "Cluttered": 9122,
      "cuddled": 9123,
      "HORSES": 9124,
      "LIKE": 9125,
      "saucers": 9126,
      "Inters": 9127,
      "mailbox": 9128,
      "cotton": 9129,
      "cocktail": 9130,
      "BRIGHT": 9131,
      "nuzzle": 9132,
      "reveals": 9133,
      "bandanna": 9134,
      "apparat": 9135,
      "investig": 9136,
      "pelicans": 9137,
      "##UGH": 9138,
      "lipstick": 9139,
      "chalkboard": 9140,
      "##uisine": 9141,
      "congregate": 9142,
      "concentrating": 9143,
      "fuel": 9144,
      "amazing": 9145,
      "maintained": 9146,
      "rushing": 9147,
      "##coln": 9148,
      "version": 9149,
      "lasagna": 9150,
      "spending": 9151,
      "dispos": 9152,
      "razor": 9153,
      "Toddler": 9154,
      "##giene": 9155,
      "secluded": 9156,
      "external": 9157,
      "25": 9158,
      "Bikes": 9159,
      "East": 9160,
      "Fe": 9161,
      "Fish": 9162,
      "Lin": 9163,
      "Per": 9164,
      "Post": 9165,
      "Ret": 9166,
      "Sleep": 9167,
      "Tour": 9168,
      "TIE": 9169,
      "cale": 9170,
      "cider": 9171,
      "cities": 9172,
      "dol": 9173,
      "dental": 9174,
      "es": 9175,
      "er": 9176,
      "foo": 9177,
      "hound": 9178,
      "hips": 9179,
      "jail": 9180,
      "jacuzzi": 9181,
      "lla": 9182,
      "lun": 9183,
      "moose": 9184,
      "nude": 9185,
      "pound": 9186,
      "rom": 9187,
      "sed": 9188,
      "tang": 9189,
      "tins": 9190,
      "wade": 9191,
      "##nes": 9192,
      "##emb": 9193,
      "##crop": 9194,
      "##long": 9195,
      "##aise": 9196,
      "##gran": 9197,
      "##DS": 9198,
      "##bla": 9199,
      "##KET": 9200,
      "##ita": 9201,
      "inse": 9202,
      "##rec": 9203,
      "ans": 9204,
      "##onge": 9205,
      "##orite": 9206,
      "sitt": 9207,
      "##elles": 9208,
      "plans": 9209,
      "plumb": 9210,
      "##omegran": 9211,
      "shar": 9212,
      "##acked": 9213,
      "##ands": 9214,
      "outcrop": 9215,
      "fronts": 9216,
      "build": 9217,
      "##inks": 9218,
      "skaters": 9219,
      "sequ": 9220,
      "weight": 9221,
      "leaking": 9222,
      "swir": 9223,
      "colt": 9224,
      "drift": 9225,
      "sheeps": 9226,
      "study": 9227,
      "saw": 9228,
      "guided": 9229,
      "restored": 9230,
      "feild": 9231,
      "unopened": 9232,
      "acting": 9233,
      "##thora": 9234,
[...]
